{
    "!": 1,
    "!'": 2,
    "!'\"": 3,
    "\"": 4,
    "\"'": 5,
    "\"\u00e2\u0123\u00a6": 6,
    "\"\u00e2\u0123\u0137": 7,
    "#": 8,
    "##": 9,
    "#$": 10,
    "#$#$": 11,
    "$": 12,
    "%": 13,
    "&": 14,
    "'": 15,
    "'\"": 16,
    "''": 17,
    "''.": 18,
    "'';": 19,
    "')": 20,
    "'),": 21,
    "').": 22,
    "');": 23,
    "',": 24,
    "',\"": 25,
    "','": 26,
    "'-": 27,
    "'.": 28,
    "'.\"": 29,
    "'/": 30,
    "':": 31,
    "';": 32,
    "'>": 33,
    "'?": 34,
    "']": 35,
    "'d": 36,
    "'ll": 37,
    "'m": 38,
    "'re": 39,
    "'s": 40,
    "'t": 41,
    "'ve": 42,
    "(": 43,
    "('": 44,
    ")": 45,
    ")'": 46,
    ")\u00e2\u0123\u0137": 47,
    "*": 48,
    "+": 49,
    ",": 50,
    ",'": 51,
    ",'\"": 52,
    ",''": 53,
    ",\u00e2\u0123\u0137": 54,
    "-": 55,
    "-'": 56,
    ".": 57,
    ".#": 58,
    ".'": 59,
    ".'\"": 60,
    ".''": 61,
    ".''.": 62,
    ".\u00e2\u0123\u0135": 63,
    ".\u00e2\u0123\u0137": 64,
    ".\u00e3\u0123\u012f": 65,
    ".\u00ef\u00bf\u00bd": 66,
    "/": 67,
    "/#": 68,
    "/\u00e2\u0123\u012d": 69,
    ":": 70,
    ":#": 71,
    ":'": 72,
    ";": 73,
    "<": 74,
    "<|endoftext|>": 75,
    "=": 76,
    "=\"#": 77,
    "=#": 78,
    "='": 79,
    ">": 80,
    "?": 81,
    "?'": 82,
    "?'\"": 83,
    "?\u00e3\u0123\u012f": 84,
    "@": 85,
    "@#": 86,
    "@#&": 87,
    "a": 88,
    "aa": 89,
    "aaf": 90,
    "ab": 91,
    "abc": 92,
    "able": 93,
    "ac": 94,
    "aca": 95,
    "acc": 96,
    "ace": 97,
    "ach": 98,
    "ack": 99,
    "acp": 100,
    "act": 101,
    "acted": 102,
    "action": 103,
    "acy": 104,
    "ad": 105,
    "ada": 106,
    "add": 107,
    "ade": 108,
    "adra": 109,
    "ads": 110,
    "advertisement": 111,
    "ae": 112,
    "af": 113,
    "afp": 114,
    "afta": 115,
    "ag": 116,
    "age": 117,
    "ages": 118,
    "ah": 119,
    "ai": 120,
    "aids": 121,
    "ain": 122,
    "air": 123,
    "ak": 124,
    "aking": 125,
    "al": 126,
    "ald": 127,
    "ale": 128,
    "alk": 129,
    "all": 130,
    "ally": 131,
    "als": 132,
    "alse": 133,
    "alt": 134,
    "alth": 135,
    "am": 136,
    "ama": 137,
    "amd": 138,
    "ame": 139,
    "ames": 140,
    "ami": 141,
    "amp": 142,
    "ams": 143,
    "amy": 144,
    "an": 145,
    "ana": 146,
    "anc": 147,
    "ance": 148,
    "and": 149,
    "ane": 150,
    "ang": 151,
    "ange": 152,
    "ani": 153,
    "ank": 154,
    "ann": 155,
    "ans": 156,
    "ant": 157,
    "any": 158,
    "ap": 159,
    "apd": 160,
    "ape": 161,
    "aph": 162,
    "api": 163,
    "app": 164,
    "aps": 165,
    "apter": 166,
    "ar": 167,
    "ara": 168,
    "arb": 169,
    "arc": 170,
    "arch": 171,
    "ard": 172,
    "ardis": 173,
    "ards": 174,
    "are": 175,
    "arget": 176,
    "ari": 177,
    "ark": 178,
    "arm": 179,
    "arp": 180,
    "arr": 181,
    "ars": 182,
    "art": 183,
    "ary": 184,
    "as": 185,
    "asc": 186,
    "ase": 187,
    "ased": 188,
    "ash": 189,
    "ashington": 190,
    "ason": 191,
    "ass": 192,
    "ast": 193,
    "asy": 194,
    "at": 195,
    "ata": 196,
    "atch": 197,
    "ate": 198,
    "ated": 199,
    "ater": 200,
    "ates": 201,
    "ath": 202,
    "ather": 203,
    "ating": 204,
    "ation": 205,
    "ational": 206,
    "ations": 207,
    "ative": 208,
    "ator": 209,
    "ats": 210,
    "att": 211,
    "attle": 212,
    "ature": 213,
    "atures": 214,
    "au": 215,
    "aud": 216,
    "aut": 217,
    "av": 218,
    "aw": 219,
    "ax": 220,
    "ay": 221,
    "az": 222,
    "aaron": 223,
    "ability": 224,
    "about": 225,
    "above": 226,
    "abs": 227,
    "absolutely": 228,
    "abstract": 229,
    "abyss": 230,
    "accept": 231,
    "access": 232,
    "accessory": 233,
    "according": 234,
    "account": 235,
    "acknowled": 236,
    "across": 237,
    "actioncode": 238,
    "activ": 239,
    "active": 240,
    "activity": 241,
    "actor": 242,
    "actually": 243,
    "adam": 244,
    "adams": 245,
    "adapt": 246,
    "adapter": 247,
    "added": 248,
    "adding": 249,
    "additional": 250,
    "additionally": 251,
    "address": 252,
    "adds": 253,
    "adjust": 254,
    "admin": 255,
    "administ": 256,
    "adult": 257,
    "adv": 258,
    "advanced": 259,
    "adventure": 260,
    "advertisements": 261,
    "afee": 262,
    "aff": 263,
    "african": 264,
    "after": 265,
    "again": 266,
    "against": 267,
    "agent": 268,
    "agg": 269,
    "aid": 270,
    "aim": 271,
    "alabama": 272,
    "alan": 273,
    "albert": 274,
    "alert": 275,
    "alex": 276,
    "alexander": 277,
    "ali": 278,
    "alias": 279,
    "alice": 280,
    "alien": 281,
    "allah": 282,
    "allen": 283,
    "allow": 284,
    "allows": 285,
    "almost": 286,
    "along": 287,
    "alpha": 288,
    "already": 289,
    "alright": 290,
    "also": 291,
    "altern": 292,
    "alternative": 293,
    "alternatively": 294,
    "although": 295,
    "always": 296,
    "amazing": 297,
    "amazon": 298,
    "amb": 299,
    "americ": 300,
    "america": 301,
    "american": 302,
    "americans": 303,
    "amid": 304,
    "among": 305,
    "amount": 306,
    "analy": 307,
    "analysis": 308,
    "ancient": 309,
    "anderson": 310,
    "andre": 311,
    "andrew": 312,
    "android": 313,
    "andy": 314,
    "angel": 315,
    "angelo": 316,
    "anim": 317,
    "animal": 318,
    "animation": 319,
    "anna": 320,
    "anne": 321,
    "anonymous": 322,
    "another": 323,
    "answer": 324,
    "anth": 325,
    "anthony": 326,
    "anti": 327,
    "anyone": 328,
    "anything": 329,
    "anyway": 330,
    "apart": 331,
    "appdata": 332,
    "apparently": 333,
    "appearance": 334,
    "appearances": 335,
    "apple": 336,
    "applic": 337,
    "application": 338,
    "applications": 339,
    "apply": 340,
    "apps": 341,
    "apr": 342,
    "april": 343,
    "arab": 344,
    "arcade": 345,
    "area": 346,
    "aren": 347,
    "arg": 348,
    "args": 349,
    "arizona": 350,
    "armor": 351,
    "army": 352,
    "around": 353,
    "array": 354,
    "arsenal": 355,
    "arthur": 356,
    "article": 357,
    "artist": 358,
    "asia": 359,
    "asian": 360,
    "aside": 361,
    "ask": 362,
    "asked": 363,
    "assad": 364,
    "assembly": 365,
    "asset": 366,
    "assistant": 367,
    "associated": 368,
    "assuming": 369,
    "async": 370,
    "atl": 371,
    "atlanta": 372,
    "atlantic": 373,
    "attach": 374,
    "attack": 375,
    "attempt": 376,
    "attempts": 377,
    "attorney": 378,
    "attribute": 379,
    "attributes": 380,
    "audio": 381,
    "aug": 382,
    "august": 383,
    "aust": 384,
    "austin": 385,
    "austral": 386,
    "australia": 387,
    "australian": 388,
    "auth": 389,
    "authent": 390,
    "author": 391,
    "authorities": 392,
    "auto": 393,
    "autom": 394,
    "availability": 395,
    "available": 396,
    "average": 397,
    "avg": 398,
    "avoid": 399,
    "awesome": 400,
    "b": 401,
    "ba": 402,
    "back": 403,
    "ball": 404,
    "bat": 405,
    "bb": 406,
    "bbc": 407,
    "bc": 408,
    "bd": 409,
    "be": 410,
    "ber": 411,
    "bf": 412,
    "bg": 413,
    "bi": 414,
    "bil": 415,
    "bilities": 416,
    "bility": 417,
    "bill": 418,
    "bip": 419,
    "bit": 420,
    "bl": 421,
    "ble": 422,
    "blic": 423,
    "bm": 424,
    "bn": 425,
    "bo": 426,
    "book": 427,
    "box": 428,
    "bp": 429,
    "br": 430,
    "bre": 431,
    "bs": 432,
    "bsd": 433,
    "bt": 434,
    "btc": 435,
    "bu": 436,
    "bug": 437,
    "bur": 438,
    "bus": 439,
    "but": 440,
    "bw": 441,
    "by": 442,
    "baby": 443,
    "background": 444,
    "bad": 445,
    "bah": 446,
    "bal": 447,
    "balance": 448,
    "balt": 449,
    "baltimore": 450,
    "ban": 451,
    "band": 452,
    "bang": 453,
    "bank": 454,
    "bar": 455,
    "barn": 456,
    "bas": 457,
    "base": 458,
    "based": 459,
    "basic": 460,
    "basically": 461,
    "batman": 462,
    "battery": 463,
    "battle": 464,
    "bay": 465,
    "bear": 466,
    "beast": 467,
    "beat": 468,
    "beaut": 469,
    "bec": 470,
    "because": 471,
    "beck": 472,
    "bed": 473,
    "bee": 474,
    "beer": 475,
    "before": 476,
    "beg": 477,
    "begin": 478,
    "beginning": 479,
    "beh": 480,
    "behind": 481,
    "being": 482,
    "bel": 483,
    "bell": 484,
    "below": 485,
    "ben": 486,
    "bench": 487,
    "benef": 488,
    "benz": 489,
    "bern": 490,
    "bernie": 491,
    "berry": 492,
    "besides": 493,
    "best": 494,
    "bet": 495,
    "beta": 496,
    "better": 497,
    "between": 498,
    "bey": 499,
    "beyond": 500,
    "big": 501,
    "billy": 502,
    "bind": 503,
    "bio": 504,
    "bir": 505,
    "bird": 506,
    "birth": 507,
    "bitcoin": 508,
    "black": 509,
    "blade": 510,
    "blake": 511,
    "block": 512,
    "blocks": 513,
    "blog": 514,
    "blood": 515,
    "bloom": 516,
    "bloomberg": 517,
    "blu": 518,
    "blue": 519,
    "board": 520,
    "bob": 521,
    "body": 522,
    "bomb": 523,
    "bon": 524,
    "bone": 525,
    "bonus": 526,
    "boo": 527,
    "books": 528,
    "boost": 529,
    "boot": 530,
    "border": 531,
    "born": 532,
    "boss": 533,
    "boston": 534,
    "bot": 535,
    "both": 536,
    "bott": 537,
    "bottom": 538,
    "bound": 539,
    "bow": 540,
    "boy": 541,
    "bra": 542,
    "brad": 543,
    "brain": 544,
    "brand": 545,
    "brandon": 546,
    "brave": 547,
    "brazil": 548,
    "break": 549,
    "breaking": 550,
    "brend": 551,
    "brew": 552,
    "brexit": 553,
    "brian": 554,
    "bride": 555,
    "bridge": 556,
    "brien": 557,
    "bright": 558,
    "bring": 559,
    "brit": 560,
    "britain": 561,
    "british": 562,
    "bro": 563,
    "broad": 564,
    "bron": 565,
    "brook": 566,
    "brother": 567,
    "brow": 568,
    "brown": 569,
    "browser": 570,
    "bruce": 571,
    "buff": 572,
    "buffer": 573,
    "build": 574,
    "builder": 575,
    "building": 576,
    "built": 577,
    "bul": 578,
    "bull": 579,
    "burn": 580,
    "bush": 581,
    "business": 582,
    "button": 583,
    "buy": 584,
    "buyable": 585,
    "buyableinstoreandonline": 586,
    "buzz": 587,
    "byid": 588,
    "byte": 589,
    "bytes": 590,
    "c": 591,
    "ca": 592,
    "can": 593,
    "cap": 594,
    "car": 595,
    "cast": 596,
    "cb": 597,
    "cbc": 598,
    "cbs": 599,
    "cc": 600,
    "cd": 601,
    "cdc": 602,
    "ce": 603,
    "cent": 604,
    "ceo": 605,
    "cept": 606,
    "cf": 607,
    "cg": 608,
    "ch": 609,
    "cha": 610,
    "chapter": 611,
    "char": 612,
    "chat": 613,
    "check": 614,
    "cho": 615,
    "chq": 616,
    "chr": 617,
    "ci": 618,
    "cia": 619,
    "cl": 620,
    "cla": 621,
    "claim": 622,
    "class": 623,
    "classified": 624,
    "cle": 625,
    "close": 626,
    "clud": 627,
    "clus": 628,
    "cm": 629,
    "cn": 630,
    "cnn": 631,
    "co": 632,
    "col": 633,
    "color": 634,
    "com": 635,
    "comple": 636,
    "con": 637,
    "conclus": 638,
    "cont": 639,
    "cor": 640,
    "cp": 641,
    "cpu": 642,
    "cr": 643,
    "cre": 644,
    "crip": 645,
    "cription": 646,
    "cs": 647,
    "css": 648,
    "ct": 649,
    "ctv": 650,
    "cu": 651,
    "cv": 652,
    "cve": 653,
    "cw": 654,
    "cache": 655,
    "cal": 656,
    "calif": 657,
    "california": 658,
    "call": 659,
    "callback": 660,
    "calling": 661,
    "cam": 662,
    "camera": 663,
    "camp": 664,
    "campaign": 665,
    "canada": 666,
    "canadian": 667,
    "cand": 668,
    "capital": 669,
    "capt": 670,
    "captain": 671,
    "capture": 672,
    "card": 673,
    "care": 674,
    "carl": 675,
    "cart": 676,
    "carter": 677,
    "cas": 678,
    "case": 679,
    "cash": 680,
    "cass": 681,
    "cat": 682,
    "catal": 683,
    "catalog": 684,
    "category": 685,
    "cath": 686,
    "catholic": 687,
    "cause": 688,
    "cele": 689,
    "cell": 690,
    "center": 691,
    "central": 692,
    "cert": 693,
    "certain": 694,
    "certainly": 695,
    "chain": 696,
    "chair": 697,
    "chall": 698,
    "champ": 699,
    "chan": 700,
    "chance": 701,
    "change": 702,
    "changed": 703,
    "changes": 704,
    "changing": 705,
    "channel": 706,
    "character": 707,
    "characters": 708,
    "charg": 709,
    "charge": 710,
    "charges": 711,
    "charl": 712,
    "charles": 713,
    "charlie": 714,
    "chart": 715,
    "che": 716,
    "chel": 717,
    "chelsea": 718,
    "chem": 719,
    "chest": 720,
    "chicago": 721,
    "chicken": 722,
    "chief": 723,
    "child": 724,
    "children": 725,
    "china": 726,
    "chinese": 727,
    "chip": 728,
    "choice": 729,
    "choose": 730,
    "chris": 731,
    "christ": 732,
    "christian": 733,
    "christmas": 734,
    "christopher": 735,
    "chuck": 736,
    "church": 737,
    "circ": 738,
    "city": 739,
    "civil": 740,
    "clar": 741,
    "clark": 742,
    "classic": 743,
    "clean": 744,
    "clear": 745,
    "clearly": 746,
    "click": 747,
    "client": 748,
    "climate": 749,
    "clinton": 750,
    "clock": 751,
    "closure": 752,
    "cloud": 753,
    "club": 754,
    "cmd": 755,
    "coach": 756,
    "cod": 757,
    "code": 758,
    "coin": 759,
    "cola": 760,
    "cold": 761,
    "cole": 762,
    "coll": 763,
    "collect": 764,
    "collection": 765,
    "college": 766,
    "collins": 767,
    "colorado": 768,
    "columb": 769,
    "column": 770,
    "comb": 771,
    "combat": 772,
    "come": 773,
    "coming": 774,
    "comm": 775,
    "command": 776,
    "comment": 777,
    "comments": 778,
    "commerce": 779,
    "commercial": 780,
    "commission": 781,
    "common": 782,
    "commun": 783,
    "community": 784,
    "comp": 785,
    "compan": 786,
    "companies": 787,
    "company": 788,
    "compar": 789,
    "compare": 790,
    "compared": 791,
    "compat": 792,
    "compl": 793,
    "complete": 794,
    "completed": 795,
    "component": 796,
    "computer": 797,
    "conclusion": 798,
    "cond": 799,
    "condition": 800,
    "conf": 801,
    "config": 802,
    "configuration": 803,
    "cong": 804,
    "congratulations": 805,
    "congress": 806,
    "conn": 807,
    "connect": 808,
    "connection": 809,
    "connector": 810,
    "connell": 811,
    "connor": 812,
    "cons": 813,
    "conservative": 814,
    "consider": 815,
    "considering": 816,
    "console": 817,
    "const": 818,
    "construct": 819,
    "constructed": 820,
    "construction": 821,
    "consumer": 822,
    "contact": 823,
    "container": 824,
    "content": 825,
    "contents": 826,
    "context": 827,
    "contin": 828,
    "continue": 829,
    "contract": 830,
    "contribut": 831,
    "control": 832,
    "controller": 833,
    "cook": 834,
    "cool": 835,
    "cooldown": 836,
    "cop": 837,
    "copy": 838,
    "copyright": 839,
    "core": 840,
    "corn": 841,
    "corp": 842,
    "correct": 843,
    "correction": 844,
    "cos": 845,
    "cost": 846,
    "could": 847,
    "coun": 848,
    "council": 849,
    "count": 850,
    "counter": 851,
    "country": 852,
    "cour": 853,
    "course": 854,
    "court": 855,
    "courtesy": 856,
    "cover": 857,
    "cow": 858,
    "cra": 859,
    "craft": 860,
    "craig": 861,
    "crash": 862,
    "creat": 863,
    "create": 864,
    "created": 865,
    "creating": 866,
    "credit": 867,
    "credits": 868,
    "crew": 869,
    "crime": 870,
    "crit": 871,
    "critical": 872,
    "critics": 873,
    "cro": 874,
    "cross": 875,
    "cru": 876,
    "crunch": 877,
    "cruz": 878,
    "cry": 879,
    "crypt": 880,
    "crystal": 881,
    "ctrl": 882,
    "cub": 883,
    "cube": 884,
    "cur": 885,
    "current": 886,
    "currently": 887,
    "custom": 888,
    "customer": 889,
    "cut": 890,
    "cy": 891,
    "d": 892,
    "da": 893,
    "daq": 894,
    "data": 895,
    "day": 896,
    "db": 897,
    "dc": 898,
    "dcs": 899,
    "dd": 900,
    "de": 901,
    "debug": 902,
    "dec": 903,
    "def": 904,
    "dem": 905,
    "den": 906,
    "dep": 907,
    "der": 908,
    "derr": 909,
    "des": 910,
    "dev": 911,
    "df": 912,
    "dh": 913,
    "di": 914,
    "dir": 915,
    "dis": 916,
    "dit": 917,
    "div": 918,
    "dj": 919,
    "dk": 920,
    "dl": 921,
    "dm": 922,
    "dn": 923,
    "dna": 924,
    "do": 925,
    "doc": 926,
    "dom": 927,
    "don": 928,
    "dos": 929,
    "down": 930,
    "dp": 931,
    "dr": 932,
    "ds": 933,
    "dt": 934,
    "dvd": 935,
    "dw": 936,
    "dx": 937,
    "dad": 938,
    "daddy": 939,
    "daily": 940,
    "dallas": 941,
    "dam": 942,
    "damage": 943,
    "damn": 944,
    "dan": 945,
    "daniel": 946,
    "danny": 947,
    "dar": 948,
    "dark": 949,
    "dash": 950,
    "dat": 951,
    "database": 952,
    "date": 953,
    "dave": 954,
    "david": 955,
    "davis": 956,
    "days": 957,
    "dead": 958,
    "deal": 959,
    "dean": 960,
    "dear": 961,
    "death": 962,
    "deb": 963,
    "december": 964,
    "decl": 965,
    "decre": 966,
    "deep": 967,
    "default": 968,
    "defense": 969,
    "definition": 970,
    "del": 971,
    "delete": 972,
    "delivery": 973,
    "deliverydate": 974,
    "delta": 975,
    "demand": 976,
    "democratic": 977,
    "democrats": 978,
    "demon": 979,
    "denver": 980,
    "department": 981,
    "depending": 982,
    "deploy": 983,
    "depth": 984,
    "depths": 985,
    "desc": 986,
    "description": 987,
    "design": 988,
    "desk": 989,
    "desktop": 990,
    "despite": 991,
    "dest": 992,
    "destroy": 993,
    "det": 994,
    "detailed": 995,
    "details": 996,
    "detect": 997,
    "detroit": 998,
    "develop": 999,
    "developer": 1000,
    "development": 1001,
    "device": 1002,
    "dex": 1003,
    "dial": 1004,
    "dialog": 1005,
    "dialogue": 1006,
    "diamond": 1007,
    "dick": 1008,
    "did": 1009,
    "die": 1010,
    "diff": 1011,
    "different": 1012,
    "dig": 1013,
    "digital": 1014,
    "dim": 1015,
    "direct": 1016,
    "director": 1017,
    "directory": 1018,
    "disable": 1019,
    "disc": 1020,
    "disclaimer": 1021,
    "discover": 1022,
    "discuss": 1023,
    "discussion": 1024,
    "disk": 1025,
    "disney": 1026,
    "dispatch": 1027,
    "display": 1028,
    "dist": 1029,
    "distance": 1030,
    "district": 1031,
    "doctor": 1032,
    "doctors": 1033,
    "document": 1034,
    "documents": 1035,
    "does": 1036,
    "dog": 1037,
    "domain": 1038,
    "domin": 1039,
    "donald": 1040,
    "donaldtrump": 1041,
    "done": 1042,
    "donnell": 1043,
    "dou": 1044,
    "double": 1045,
    "doug": 1046,
    "download": 1047,
    "downloadha": 1048,
    "draft": 1049,
    "drag": 1050,
    "dragon": 1051,
    "dragonmagazine": 1052,
    "draw": 1053,
    "dream": 1054,
    "dri": 1055,
    "drive": 1056,
    "driver": 1057,
    "dro": 1058,
    "drop": 1059,
    "drug": 1060,
    "du": 1061,
    "dual": 1062,
    "dub": 1063,
    "due": 1064,
    "dun": 1065,
    "dur": 1066,
    "duration": 1067,
    "during": 1068,
    "dust": 1069,
    "dutch": 1070,
    "dynamic": 1071,
    "e": 1072,
    "ea": 1073,
    "ear": 1074,
    "eb": 1075,
    "ec": 1076,
    "eca": 1077,
    "ecd": 1078,
    "ech": 1079,
    "eck": 1080,
    "ect": 1081,
    "ection": 1082,
    "ed": 1083,
    "edit": 1084,
    "ee": 1085,
    "eed": 1086,
    "eek": 1087,
    "eep": 1088,
    "ef": 1089,
    "eff": 1090,
    "eg": 1091,
    "ega": 1092,
    "egin": 1093,
    "eh": 1094,
    "el": 1095,
    "eld": 1096,
    "elf": 1097,
    "ell": 1098,
    "els": 1099,
    "ely": 1100,
    "em": 1101,
    "ema": 1102,
    "ember": 1103,
    "ement": 1104,
    "emote": 1105,
    "emp": 1106,
    "ems": 1107,
    "en": 1108,
    "ena": 1109,
    "enc": 1110,
    "ence": 1111,
    "ency": 1112,
    "end": 1113,
    "ended": 1114,
    "ene": 1115,
    "eng": 1116,
    "ength": 1117,
    "enn": 1118,
    "ens": 1119,
    "ense": 1120,
    "ent": 1121,
    "ention": 1122,
    "ents": 1123,
    "eo": 1124,
    "ep": 1125,
    "epa": 1126,
    "er": 1127,
    "era": 1128,
    "eral": 1129,
    "erc": 1130,
    "ere": 1131,
    "erg": 1132,
    "ern": 1133,
    "ero": 1134,
    "error": 1135,
    "ers": 1136,
    "erson": 1137,
    "ert": 1138,
    "ery": 1139,
    "es": 1140,
    "esa": 1141,
    "esco": 1142,
    "ese": 1143,
    "esh": 1144,
    "espn": 1145,
    "ess": 1146,
    "ession": 1147,
    "est": 1148,
    "estream": 1149,
    "estreamframe": 1150,
    "et": 1151,
    "eta": 1152,
    "etf": 1153,
    "eth": 1154,
    "ethod": 1155,
    "ets": 1156,
    "eu": 1157,
    "ev": 1158,
    "eva": 1159,
    "ew": 1160,
    "ex": 1161,
    "exp": 1162,
    "ext": 1163,
    "ey": 1164,
    "each": 1165,
    "earlier": 1166,
    "early": 1167,
    "earn": 1168,
    "earth": 1169,
    "east": 1170,
    "eastern": 1171,
    "easy": 1172,
    "eat": 1173,
    "econom": 1174,
    "economic": 1175,
    "edge": 1176,
    "edited": 1177,
    "editor": 1178,
    "educ": 1179,
    "education": 1180,
    "edward": 1181,
    "effect": 1182,
    "effective": 1183,
    "effects": 1184,
    "egypt": 1185,
    "eight": 1186,
    "either": 1187,
    "ele": 1188,
    "elect": 1189,
    "electric": 1190,
    "element": 1191,
    "elizabeth": 1192,
    "elsa": 1193,
    "else": 1194,
    "elsewhere": 1195,
    "email": 1196,
    "emb": 1197,
    "emer": 1198,
    "emergency": 1199,
    "emily": 1200,
    "employ": 1201,
    "empty": 1202,
    "enable": 1203,
    "enabled": 1204,
    "energy": 1205,
    "engine": 1206,
    "enginedebug": 1207,
    "engineers": 1208,
    "england": 1209,
    "english": 1210,
    "enh": 1211,
    "enhanced": 1212,
    "enjoy": 1213,
    "enlarge": 1214,
    "enough": 1215,
    "enter": 1216,
    "entity": 1217,
    "entry": 1218,
    "environment": 1219,
    "environmental": 1220,
    "episode": 1221,
    "equ": 1222,
    "eric": 1223,
    "esc": 1224,
    "especially": 1225,
    "euro": 1226,
    "europe": 1227,
    "european": 1228,
    "even": 1229,
    "event": 1230,
    "events": 1231,
    "eventually": 1232,
    "ever": 1233,
    "every": 1234,
    "everybody": 1235,
    "everyone": 1236,
    "everything": 1237,
    "evidence": 1238,
    "evil": 1239,
    "exactly": 1240,
    "example": 1241,
    "examples": 1242,
    "exc": 1243,
    "excellent": 1244,
    "except": 1245,
    "exception": 1246,
    "exec": 1247,
    "executive": 1248,
    "exit": 1249,
    "exper": 1250,
    "experience": 1251,
    "experts": 1252,
    "expl": 1253,
    "explore": 1254,
    "export": 1255,
    "express": 1256,
    "external": 1257,
    "extra": 1258,
    "extreme": 1259,
    "eye": 1260,
    "f": 1261,
    "fa": 1262,
    "face": 1263,
    "faq": 1264,
    "fault": 1265,
    "fb": 1266,
    "fbi": 1267,
    "fc": 1268,
    "fd": 1269,
    "fe": 1270,
    "fer": 1271,
    "ff": 1272,
    "ffer": 1273,
    "fg": 1274,
    "fh": 1275,
    "fi": 1276,
    "field": 1277,
    "fig": 1278,
    "fil": 1279,
    "file": 1280,
    "fin": 1281,
    "fine": 1282,
    "finest": 1283,
    "fir": 1284,
    "fix": 1285,
    "fk": 1286,
    "fl": 1287,
    "flag": 1288,
    "fm": 1289,
    "fml": 1290,
    "fn": 1291,
    "fo": 1292,
    "for": 1293,
    "fore": 1294,
    "form": 1295,
    "formation": 1296,
    "fox": 1297,
    "fp": 1298,
    "fr": 1299,
    "free": 1300,
    "fs": 1301,
    "ft": 1302,
    "ftware": 1303,
    "fu": 1304,
    "ful": 1305,
    "fun": 1306,
    "fw": 1307,
    "fx": 1308,
    "fy": 1309,
    "fab": 1310,
    "fac": 1311,
    "facebook": 1312,
    "fact": 1313,
    "factor": 1314,
    "factory": 1315,
    "factoryreloaded": 1316,
    "fail": 1317,
    "failure": 1318,
    "fair": 1319,
    "faith": 1320,
    "fake": 1321,
    "fal": 1322,
    "fall": 1323,
    "false": 1324,
    "family": 1325,
    "fan": 1326,
    "fans": 1327,
    "far": 1328,
    "farm": 1329,
    "fast": 1330,
    "fat": 1331,
    "father": 1332,
    "favorite": 1333,
    "fax": 1334,
    "fear": 1335,
    "feature": 1336,
    "featured": 1337,
    "features": 1338,
    "feb": 1339,
    "february": 1340,
    "fed": 1341,
    "federal": 1342,
    "feed": 1343,
    "feel": 1344,
    "fel": 1345,
    "female": 1346,
    "fest": 1347,
    "few": 1348,
    "fif": 1349,
    "fight": 1350,
    "fighting": 1351,
    "figure": 1352,
    "filename": 1353,
    "files": 1354,
    "fill": 1355,
    "film": 1356,
    "filter": 1357,
    "final": 1358,
    "finally": 1359,
    "financial": 1360,
    "find": 1361,
    "finding": 1362,
    "finish": 1363,
    "fire": 1364,
    "first": 1365,
    "firstly": 1366,
    "fish": 1367,
    "fit": 1368,
    "five": 1369,
    "fixed": 1370,
    "fla": 1371,
    "flags": 1372,
    "flash": 1373,
    "fle": 1374,
    "flickr": 1375,
    "flight": 1376,
    "flo": 1377,
    "float": 1378,
    "flor": 1379,
    "florida": 1380,
    "flow": 1381,
    "fly": 1382,
    "flying": 1383,
    "focus": 1384,
    "folder": 1385,
    "follow": 1386,
    "following": 1387,
    "font": 1388,
    "fontsize": 1389,
    "food": 1390,
    "foot": 1391,
    "football": 1392,
    "footnote": 1393,
    "force": 1394,
    "ford": 1395,
    "foreign": 1396,
    "forest": 1397,
    "forge": 1398,
    "forgemodloader": 1399,
    "format": 1400,
    "former": 1401,
    "fort": 1402,
    "fortunately": 1403,
    "forward": 1404,
    "found": 1405,
    "four": 1406,
    "fourth": 1407,
    "fra": 1408,
    "frag": 1409,
    "fram": 1410,
    "frame": 1411,
    "frames": 1412,
    "frameworks": 1413,
    "fran": 1414,
    "franc": 1415,
    "france": 1416,
    "frank": 1417,
    "fre": 1418,
    "fred": 1419,
    "freedom": 1420,
    "french": 1421,
    "fresh": 1422,
    "fri": 1423,
    "friday": 1424,
    "friend": 1425,
    "friends": 1426,
    "from": 1427,
    "front": 1428,
    "fuck": 1429,
    "fuel": 1430,
    "full": 1431,
    "function": 1432,
    "fund": 1433,
    "further": 1434,
    "furthermore": 1435,
    "future": 1436,
    "g": 1437,
    "ga": 1438,
    "game": 1439,
    "gan": 1440,
    "gb": 1441,
    "gbt": 1442,
    "gc": 1443,
    "gd": 1444,
    "ge": 1445,
    "gen": 1446,
    "ger": 1447,
    "ges": 1448,
    "get": 1449,
    "gf": 1450,
    "gg": 1451,
    "gh": 1452,
    "ghz": 1453,
    "gi": 1454,
    "gl": 1455,
    "gm": 1456,
    "gmt": 1457,
    "gn": 1458,
    "go": 1459,
    "gop": 1460,
    "gp": 1461,
    "gpu": 1462,
    "gr": 1463,
    "gre": 1464,
    "green": 1465,
    "ground": 1466,
    "group": 1467,
    "gs": 1468,
    "gt": 1469,
    "gu": 1470,
    "gui": 1471,
    "gv": 1472,
    "gw": 1473,
    "gy": 1474,
    "gab": 1475,
    "gal": 1476,
    "gall": 1477,
    "gallery": 1478,
    "gam": 1479,
    "gameplay": 1480,
    "gamer": 1481,
    "games": 1482,
    "gaming": 1483,
    "gar": 1484,
    "gary": 1485,
    "gas": 1486,
    "gate": 1487,
    "gay": 1488,
    "gaza": 1489,
    "gear": 1490,
    "gender": 1491,
    "gene": 1492,
    "gener": 1493,
    "general": 1494,
    "generally": 1495,
    "generic": 1496,
    "georg": 1497,
    "george": 1498,
    "georgia": 1499,
    "german": 1500,
    "germany": 1501,
    "getting": 1502,
    "getty": 1503,
    "ghost": 1504,
    "gil": 1505,
    "girl": 1506,
    "girls": 1507,
    "give": 1508,
    "given": 1509,
    "giving": 1510,
    "glass": 1511,
    "global": 1512,
    "goal": 1513,
    "god": 1514,
    "going": 1515,
    "gold": 1516,
    "goldmagikarp": 1517,
    "golden": 1518,
    "good": 1519,
    "google": 1520,
    "gordon": 1521,
    "got": 1522,
    "gov": 1523,
    "govern": 1524,
    "government": 1525,
    "gra": 1526,
    "grab": 1527,
    "grad": 1528,
    "grade": 1529,
    "graham": 1530,
    "grand": 1531,
    "grant": 1532,
    "graph": 1533,
    "graphics": 1534,
    "gray": 1535,
    "great": 1536,
    "greek": 1537,
    "greg": 1538,
    "grey": 1539,
    "grid": 1540,
    "gro": 1541,
    "growing": 1542,
    "guard": 1543,
    "guest": 1544,
    "guide": 1545,
    "gun": 1546,
    "guy": 1547,
    "h": 1548,
    "ha": 1549,
    "hael": 1550,
    "haha": 1551,
    "hahahaha": 1552,
    "ham": 1553,
    "hb": 1554,
    "hc": 1555,
    "hcr": 1556,
    "hd": 1557,
    "he": 1558,
    "head": 1559,
    "her": 1560,
    "hf": 1561,
    "hh": 1562,
    "hi": 1563,
    "hk": 1564,
    "hl": 1565,
    "hm": 1566,
    "ho": 1567,
    "home": 1568,
    "hou": 1569,
    "how": 1570,
    "hp": 1571,
    "hq": 1572,
    "hr": 1573,
    "hs": 1574,
    "ht": 1575,
    "html": 1576,
    "http": 1577,
    "hud": 1578,
    "hy": 1579,
    "hack": 1580,
    "had": 1581,
    "hal": 1582,
    "half": 1583,
    "hall": 1584,
    "hamilton": 1585,
    "han": 1586,
    "hand": 1587,
    "handle": 1588,
    "handler": 1589,
    "happy": 1590,
    "har": 1591,
    "hard": 1592,
    "hardware": 1593,
    "harris": 1594,
    "harry": 1595,
    "hart": 1596,
    "has": 1597,
    "hash": 1598,
    "hat": 1599,
    "haunted": 1600,
    "have": 1601,
    "having": 1602,
    "haw": 1603,
    "hay": 1604,
    "header": 1605,
    "health": 1606,
    "heart": 1607,
    "heat": 1608,
    "heavy": 1609,
    "height": 1610,
    "hel": 1611,
    "hell": 1612,
    "hello": 1613,
    "help": 1614,
    "helper": 1615,
    "hen": 1616,
    "henry": 1617,
    "here": 1618,
    "herm": 1619,
    "hero": 1620,
    "hey": 1621,
    "hidden": 1622,
    "hide": 1623,
    "hig": 1624,
    "high": 1625,
    "higher": 1626,
    "hill": 1627,
    "hillary": 1628,
    "his": 1629,
    "hispanic": 1630,
    "hist": 1631,
    "history": 1632,
    "hit": 1633,
    "hmm": 1634,
    "hol": 1635,
    "hold": 1636,
    "holy": 1637,
    "hom": 1638,
    "hon": 1639,
    "honest": 1640,
    "honestly": 1641,
    "hong": 1642,
    "hop": 1643,
    "hope": 1644,
    "hopefully": 1645,
    "hor": 1646,
    "host": 1647,
    "hot": 1648,
    "hour": 1649,
    "hours": 1650,
    "house": 1651,
    "houston": 1652,
    "howard": 1653,
    "however": 1654,
    "hu": 1655,
    "hub": 1656,
    "hug": 1657,
    "huh": 1658,
    "hum": 1659,
    "human": 1660,
    "hun": 1661,
    "hundreds": 1662,
    "hung": 1663,
    "hunt": 1664,
    "hunter": 1665,
    "hur": 1666,
    "hyd": 1667,
    "hyp": 1668,
    "hyper": 1669,
    "hz": 1670,
    "i": 1671,
    "ia": 1672,
    "ial": 1673,
    "ian": 1674,
    "ias": 1675,
    "ib": 1676,
    "ible": 1677,
    "ic": 1678,
    "ica": 1679,
    "ical": 1680,
    "ican": 1681,
    "ice": 1682,
    "ices": 1683,
    "ich": 1684,
    "ick": 1685,
    "icle": 1686,
    "ico": 1687,
    "ics": 1688,
    "ict": 1689,
    "id": 1690,
    "ida": 1691,
    "ide": 1692,
    "ident": 1693,
    "ider": 1694,
    "ides": 1695,
    "ids": 1696,
    "ie": 1697,
    "ied": 1698,
    "ield": 1699,
    "ience": 1700,
    "ient": 1701,
    "ier": 1702,
    "ies": 1703,
    "if": 1704,
    "ifa": 1705,
    "ife": 1706,
    "iff": 1707,
    "ific": 1708,
    "ified": 1709,
    "ift": 1710,
    "ig": 1711,
    "igh": 1712,
    "ight": 1713,
    "ights": 1714,
    "ign": 1715,
    "ii": 1716,
    "ij": 1717,
    "ik": 1718,
    "il": 1719,
    "ila": 1720,
    "ild": 1721,
    "ile": 1722,
    "ill": 1723,
    "ille": 1724,
    "ils": 1725,
    "ily": 1726,
    "im": 1727,
    "ime": 1728,
    "in": 1729,
    "ina": 1730,
    "inal": 1731,
    "inc": 1732,
    "ind": 1733,
    "ine": 1734,
    "iness": 1735,
    "info": 1736,
    "ing": 1737,
    "ings": 1738,
    "ington": 1739,
    "ink": 1740,
    "ino": 1741,
    "ins": 1742,
    "inst": 1743,
    "int": 1744,
    "inter": 1745,
    "inton": 1746,
    "io": 1747,
    "ion": 1748,
    "ions": 1749,
    "ior": 1750,
    "ip": 1751,
    "ipp": 1752,
    "ips": 1753,
    "iq": 1754,
    "ir": 1755,
    "irc": 1756,
    "ird": 1757,
    "ire": 1758,
    "ired": 1759,
    "iro": 1760,
    "irt": 1761,
    "is": 1762,
    "isa": 1763,
    "isc": 1764,
    "ise": 1765,
    "ish": 1766,
    "ision": 1767,
    "isis": 1768,
    "ism": 1769,
    "iso": 1770,
    "ison": 1771,
    "iss": 1772,
    "ission": 1773,
    "ist": 1774,
    "ister": 1775,
    "istory": 1776,
    "it": 1777,
    "ital": 1778,
    "itch": 1779,
    "ite": 1780,
    "ited": 1781,
    "ith": 1782,
    "ities": 1783,
    "ition": 1784,
    "itness": 1785,
    "its": 1786,
    "itt": 1787,
    "ity": 1788,
    "iu": 1789,
    "ium": 1790,
    "iv": 1791,
    "ive": 1792,
    "iver": 1793,
    "ivers": 1794,
    "ives": 1795,
    "ix": 1796,
    "iz": 1797,
    "ize": 1798,
    "icon": 1799,
    "image": 1800,
    "images": 1801,
    "imagine": 1802,
    "imm": 1803,
    "imp": 1804,
    "impl": 1805,
    "import": 1806,
    "important": 1807,
    "impro": 1808,
    "improve": 1809,
    "improved": 1810,
    "includes": 1811,
    "incre": 1812,
    "increase": 1813,
    "increased": 1814,
    "increases": 1815,
    "indeed": 1816,
    "independent": 1817,
    "index": 1818,
    "india": 1819,
    "indian": 1820,
    "indiana": 1821,
    "individual": 1822,
    "indust": 1823,
    "inf": 1824,
    "information": 1825,
    "ingredients": 1826,
    "init": 1827,
    "initial": 1828,
    "initialized": 1829,
    "initially": 1830,
    "input": 1831,
    "insert": 1832,
    "inside": 1833,
    "insp": 1834,
    "install": 1835,
    "installation": 1836,
    "instance": 1837,
    "instant": 1838,
    "instead": 1839,
    "instoreandonline": 1840,
    "instruct": 1841,
    "integ": 1842,
    "integer": 1843,
    "intel": 1844,
    "interest": 1845,
    "interested": 1846,
    "interestingly": 1847,
    "interface": 1848,
    "intern": 1849,
    "internal": 1850,
    "international": 1851,
    "internet": 1852,
    "interstitial": 1853,
    "interview": 1854,
    "introdu": 1855,
    "introduced": 1856,
    "introduction": 1857,
    "inv": 1858,
    "invalid": 1859,
    "invest": 1860,
    "investigators": 1861,
    "iowa": 1862,
    "iran": 1863,
    "iraq": 1864,
    "ireland": 1865,
    "irish": 1866,
    "iron": 1867,
    "ironically": 1868,
    "islam": 1869,
    "islamic": 1870,
    "isn": 1871,
    "israel": 1872,
    "israeli": 1873,
    "issue": 1874,
    "italian": 1875,
    "italy": 1876,
    "item": 1877,
    "itemimage": 1878,
    "itemthumbnailimage": 1879,
    "itemtracker": 1880,
    "items": 1881,
    "iter": 1882,
    "iterator": 1883,
    "j": 1884,
    "ja": 1885,
    "jb": 1886,
    "jc": 1887,
    "jd": 1888,
    "ject": 1889,
    "jj": 1890,
    "jm": 1891,
    "jo": 1892,
    "john": 1893,
    "jp": 1894,
    "jr": 1895,
    "js": 1896,
    "json": 1897,
    "just": 1898,
    "jv": 1899,
    "jac": 1900,
    "jack": 1901,
    "jackson": 1902,
    "jacob": 1903,
    "jake": 1904,
    "jam": 1905,
    "james": 1906,
    "jamie": 1907,
    "jan": 1908,
    "jane": 1909,
    "january": 1910,
    "japan": 1911,
    "japanese": 1912,
    "jar": 1913,
    "jason": 1914,
    "java": 1915,
    "jay": 1916,
    "je": 1917,
    "jean": 1918,
    "jeff": 1919,
    "jen": 1920,
    "jenn": 1921,
    "jennifer": 1922,
    "jer": 1923,
    "jere": 1924,
    "jeremy": 1925,
    "jerry": 1926,
    "jes": 1927,
    "jess": 1928,
    "jessica": 1929,
    "jesus": 1930,
    "jet": 1931,
    "jew": 1932,
    "jewish": 1933,
    "jews": 1934,
    "jim": 1935,
    "jimmy": 1936,
    "job": 1937,
    "joe": 1938,
    "johnny": 1939,
    "johnson": 1940,
    "join": 1941,
    "joined": 1942,
    "jon": 1943,
    "jonathan": 1944,
    "jones": 1945,
    "jordan": 1946,
    "jose": 1947,
    "joseph": 1948,
    "josh": 1949,
    "joshua": 1950,
    "journal": 1951,
    "joy": 1952,
    "ju": 1953,
    "jud": 1954,
    "judge": 1955,
    "jul": 1956,
    "july": 1957,
    "jump": 1958,
    "jun": 1959,
    "june": 1960,
    "justice": 1961,
    "justin": 1962,
    "k": 1963,
    "ka": 1964,
    "kb": 1965,
    "kc": 1966,
    "ke": 1967,
    "ken": 1968,
    "ker": 1969,
    "key": 1970,
    "ki": 1971,
    "king": 1972,
    "kk": 1973,
    "kn": 1974,
    "known": 1975,
    "ko": 1976,
    "kr": 1977,
    "ks": 1978,
    "kt": 1979,
    "ky": 1980,
    "kal": 1981,
    "kansas": 1982,
    "kar": 1983,
    "karl": 1984,
    "kat": 1985,
    "kate": 1986,
    "kay": 1987,
    "keefe": 1988,
    "keep": 1989,
    "keeping": 1990,
    "keith": 1991,
    "kelly": 1992,
    "kenn": 1993,
    "kent": 1994,
    "kevin": 1995,
    "keys": 1996,
    "kh": 1997,
    "kick": 1998,
    "kid": 1999,
    "kids": 2000,
    "kill": 2001,
    "kim": 2002,
    "kin": 2003,
    "kind": 2004,
    "kings": 2005,
    "kit": 2006,
    "knight": 2007,
    "know": 2008,
    "knowing": 2009,
    "krist": 2010,
    "ku": 2011,
    "kyle": 2012,
    "l": 2013,
    "la": 2014,
    "lab": 2015,
    "lan": 2016,
    "land": 2017,
    "lb": 2018,
    "lc": 2019,
    "lcs": 2020,
    "ld": 2021,
    "le": 2022,
    "lease": 2023,
    "lect": 2024,
    "led": 2025,
    "ler": 2026,
    "les": 2027,
    "less": 2028,
    "let": 2029,
    "ley": 2030,
    "lg": 2031,
    "lgbt": 2032,
    "li": 2033,
    "lib": 2034,
    "lin": 2035,
    "line": 2036,
    "list": 2037,
    "ll": 2038,
    "llow": 2039,
    "lm": 2040,
    "lo": 2041,
    "load": 2042,
    "loc": 2043,
    "lock": 2044,
    "lod": 2045,
    "log": 2046,
    "los": 2047,
    "lp": 2048,
    "lr": 2049,
    "ls": 2050,
    "lt": 2051,
    "lu": 2052,
    "lv": 2053,
    "ly": 2054,
    "label": 2055,
    "labor": 2056,
    "labour": 2057,
    "lady": 2058,
    "lago": 2059,
    "lair": 2060,
    "lake": 2061,
    "language": 2062,
    "large": 2063,
    "larry": 2064,
    "las": 2065,
    "last": 2066,
    "lastly": 2067,
    "lat": 2068,
    "late": 2069,
    "later": 2070,
    "latest": 2071,
    "latin": 2072,
    "laughs": 2073,
    "laun": 2074,
    "launch": 2075,
    "laura": 2076,
    "law": 2077,
    "lay": 2078,
    "layer": 2079,
    "layout": 2080,
    "lead": 2081,
    "leader": 2082,
    "league": 2083,
    "leaks": 2084,
    "lean": 2085,
    "lear": 2086,
    "learn": 2087,
    "learning": 2088,
    "leary": 2089,
    "leave": 2090,
    "lee": 2091,
    "left": 2092,
    "leg": 2093,
    "legal": 2094,
    "legend": 2095,
    "legendary": 2096,
    "len": 2097,
    "length": 2098,
    "lenin": 2099,
    "lens": 2100,
    "leod": 2101,
    "leon": 2102,
    "letter": 2103,
    "lev": 2104,
    "level": 2105,
    "lew": 2106,
    "lewis": 2107,
    "lex": 2108,
    "liber": 2109,
    "liberal": 2110,
    "library": 2111,
    "lic": 2112,
    "license": 2113,
    "lie": 2114,
    "life": 2115,
    "light": 2116,
    "like": 2117,
    "likewise": 2118,
    "lim": 2119,
    "limit": 2120,
    "limited": 2121,
    "lind": 2122,
    "link": 2123,
    "linkedin": 2124,
    "links": 2125,
    "linux": 2126,
    "liquid": 2127,
    "lisa": 2128,
    "listen": 2129,
    "listener": 2130,
    "liter": 2131,
    "little": 2132,
    "live": 2133,
    "liverpool": 2134,
    "living": 2135,
    "loader": 2136,
    "loading": 2137,
    "local": 2138,
    "located": 2139,
    "location": 2140,
    "login": 2141,
    "london": 2142,
    "long": 2143,
    "look": 2144,
    "looking": 2145,
    "looks": 2146,
    "loop": 2147,
    "lord": 2148,
    "lost": 2149,
    "lot": 2150,
    "lots": 2151,
    "lou": 2152,
    "louis": 2153,
    "love": 2154,
    "low": 2155,
    "lower": 2156,
    "lua": 2157,
    "luc": 2158,
    "luck": 2159,
    "luckily": 2160,
    "luke": 2161,
    "lyn": 2162,
    "m": 2163,
    "ma": 2164,
    "mac": 2165,
    "mag": 2166,
    "mal": 2167,
    "man": 2168,
    "map": 2169,
    "mar": 2170,
    "mas": 2171,
    "mat": 2172,
    "max": 2173,
    "mb": 2174,
    "mc": 2175,
    "md": 2176,
    "me": 2177,
    "med": 2178,
    "men": 2179,
    "ment": 2180,
    "ments": 2181,
    "mer": 2182,
    "met": 2183,
    "method": 2184,
    "mf": 2185,
    "mg": 2186,
    "mh": 2187,
    "mhz": 2188,
    "mi": 2189,
    "mic": 2190,
    "min": 2191,
    "mit": 2192,
    "mj": 2193,
    "mk": 2194,
    "ml": 2195,
    "mm": 2196,
    "mn": 2197,
    "mo": 2198,
    "mod": 2199,
    "mode": 2200,
    "mon": 2201,
    "more": 2202,
    "mp": 2203,
    "mq": 2204,
    "mr": 2205,
    "mri": 2206,
    "ms": 2207,
    "msn": 2208,
    "mt": 2209,
    "mu": 2210,
    "mw": 2211,
    "mx": 2212,
    "my": 2213,
    "mach": 2214,
    "machine": 2215,
    "mad": 2216,
    "made": 2217,
    "madison": 2218,
    "magazine": 2219,
    "magic": 2220,
    "magikarp": 2221,
    "magn": 2222,
    "mah": 2223,
    "mail": 2224,
    "main": 2225,
    "major": 2226,
    "make": 2227,
    "maker": 2228,
    "making": 2229,
    "male": 2230,
    "malley": 2231,
    "management": 2232,
    "manager": 2233,
    "manchester": 2234,
    "mand": 2235,
    "mania": 2236,
    "manufact": 2237,
    "many": 2238,
    "maps": 2239,
    "marc": 2240,
    "march": 2241,
    "marco": 2242,
    "marcus": 2243,
    "marg": 2244,
    "marginal": 2245,
    "maria": 2246,
    "marie": 2247,
    "mario": 2248,
    "mark": 2249,
    "market": 2250,
    "mars": 2251,
    "marsh": 2252,
    "mart": 2253,
    "martin": 2254,
    "marvel": 2255,
    "marx": 2256,
    "mary": 2257,
    "mask": 2258,
    "mass": 2259,
    "master": 2260,
    "match": 2261,
    "material": 2262,
    "materials": 2263,
    "math": 2264,
    "matrix": 2265,
    "matt": 2266,
    "matthew": 2267,
    "maximum": 2268,
    "may": 2269,
    "maybe": 2270,
    "mayor": 2271,
    "mbps": 2272,
    "mcc": 2273,
    "meanwhile": 2274,
    "measure": 2275,
    "meat": 2276,
    "mech": 2277,
    "media": 2278,
    "medic": 2279,
    "medical": 2280,
    "medium": 2281,
    "meet": 2282,
    "meg": 2283,
    "mega": 2284,
    "mel": 2285,
    "mem": 2286,
    "member": 2287,
    "members": 2288,
    "memory": 2289,
    "menu": 2290,
    "merc": 2291,
    "merit": 2292,
    "mesh": 2293,
    "mess": 2294,
    "message": 2295,
    "meta": 2296,
    "metal": 2297,
    "methods": 2298,
    "metro": 2299,
    "mex": 2300,
    "mexico": 2301,
    "miami": 2302,
    "mich": 2303,
    "michael": 2304,
    "michelle": 2305,
    "michigan": 2306,
    "micro": 2307,
    "microsoft": 2308,
    "mid": 2309,
    "middle": 2310,
    "mike": 2311,
    "mil": 2312,
    "military": 2313,
    "mill": 2314,
    "miller": 2315,
    "mind": 2316,
    "mine": 2317,
    "minecraft": 2318,
    "mini": 2319,
    "minimum": 2320,
    "minnesota": 2321,
    "minor": 2322,
    "mir": 2323,
    "mis": 2324,
    "miss": 2325,
    "missing": 2326,
    "mission": 2327,
    "mist": 2328,
    "mix": 2329,
    "mob": 2330,
    "mobil": 2331,
    "mobile": 2332,
    "modloader": 2333,
    "model": 2334,
    "modern": 2335,
    "mods": 2336,
    "module": 2337,
    "moh": 2338,
    "mom": 2339,
    "monday": 2340,
    "money": 2341,
    "monitor": 2342,
    "monster": 2343,
    "mont": 2344,
    "month": 2345,
    "moon": 2346,
    "moore": 2347,
    "mor": 2348,
    "moreover": 2349,
    "morgan": 2350,
    "morning": 2351,
    "mos": 2352,
    "moscow": 2353,
    "most": 2354,
    "mot": 2355,
    "mother": 2356,
    "motion": 2357,
    "motor": 2358,
    "mount": 2359,
    "mouse": 2360,
    "move": 2361,
    "movie": 2362,
    "moving": 2363,
    "mpserver": 2364,
    "mrs": 2365,
    "msg": 2366,
    "much": 2367,
    "mult": 2368,
    "multi": 2369,
    "multiple": 2370,
    "mur": 2371,
    "murray": 2372,
    "mus": 2373,
    "music": 2374,
    "muslim": 2375,
    "muslims": 2376,
    "must": 2377,
    "mut": 2378,
    "myth": 2379,
    "n": 2380,
    "na": 2381,
    "name": 2382,
    "nas": 2383,
    "nasa": 2384,
    "nat": 2385,
    "nb": 2386,
    "nba": 2387,
    "nbc": 2388,
    "nc": 2389,
    "nd": 2390,
    "ne": 2391,
    "nect": 2392,
    "ner": 2393,
    "nes": 2394,
    "ness": 2395,
    "net": 2396,
    "new": 2397,
    "news": 2398,
    "ney": 2399,
    "nf": 2400,
    "nfl": 2401,
    "ng": 2402,
    "nh": 2403,
    "ni": 2404,
    "ning": 2405,
    "nj": 2406,
    "nk": 2407,
    "nl": 2408,
    "nm": 2409,
    "nn": 2410,
    "no": 2411,
    "nor": 2412,
    "not": 2413,
    "note": 2414,
    "now": 2415,
    "np": 2416,
    "npr": 2417,
    "nr": 2418,
    "nrs": 2419,
    "ns": 2420,
    "nsa": 2421,
    "nt": 2422,
    "null": 2423,
    "num": 2424,
    "nv": 2425,
    "nvidia": 2426,
    "nw": 2427,
    "ny": 2428,
    "nyse": 2429,
    "nz": 2430,
    "names": 2431,
    "nap": 2432,
    "nar": 2433,
    "narr": 2434,
    "nation": 2435,
    "national": 2436,
    "native": 2437,
    "natural": 2438,
    "naturally": 2439,
    "nature": 2440,
    "nav": 2441,
    "naz": 2442,
    "nazi": 2443,
    "nazis": 2444,
    "neal": 2445,
    "near": 2446,
    "nearly": 2447,
    "need": 2448,
    "neg": 2449,
    "neigh": 2450,
    "neil": 2451,
    "neill": 2452,
    "neither": 2453,
    "netmessage": 2454,
    "netflix": 2455,
    "network": 2456,
    "nev": 2457,
    "never": 2458,
    "nevertheless": 2459,
    "newsletter": 2460,
    "next": 2461,
    "nic": 2462,
    "nice": 2463,
    "nich": 2464,
    "nick": 2465,
    "night": 2466,
    "nik": 2467,
    "nin": 2468,
    "nine": 2469,
    "nintendo": 2470,
    "nit": 2471,
    "nitrome": 2472,
    "nob": 2473,
    "nobody": 2474,
    "node": 2475,
    "non": 2476,
    "none": 2477,
    "nonetheless": 2478,
    "norm": 2479,
    "normal": 2480,
    "normally": 2481,
    "north": 2482,
    "northern": 2483,
    "notable": 2484,
    "notes": 2485,
    "nothing": 2486,
    "notice": 2487,
    "nov": 2488,
    "november": 2489,
    "number": 2490,
    "numbers": 2491,
    "nusra": 2492,
    "nut": 2493,
    "o": 2494,
    "oa": 2495,
    "oad": 2496,
    "ob": 2497,
    "oc": 2498,
    "ock": 2499,
    "od": 2500,
    "ode": 2501,
    "oduct": 2502,
    "ody": 2503,
    "oe": 2504,
    "of": 2505,
    "off": 2506,
    "og": 2507,
    "ogr": 2508,
    "oh": 2509,
    "ohn": 2510,
    "oil": 2511,
    "ok": 2512,
    "ol": 2513,
    "old": 2514,
    "olog": 2515,
    "ology": 2516,
    "om": 2517,
    "ome": 2518,
    "on": 2519,
    "ond": 2520,
    "ondon": 2521,
    "one": 2522,
    "ones": 2523,
    "oney": 2524,
    "ong": 2525,
    "ons": 2526,
    "onsored": 2527,
    "ont": 2528,
    "ony": 2529,
    "oo": 2530,
    "ood": 2531,
    "ook": 2532,
    "ool": 2533,
    "op": 2534,
    "opa": 2535,
    "ope": 2536,
    "oper": 2537,
    "ople": 2538,
    "ops": 2539,
    "or": 2540,
    "ord": 2541,
    "ore": 2542,
    "ored": 2543,
    "orge": 2544,
    "ork": 2545,
    "orn": 2546,
    "orpg": 2547,
    "ors": 2548,
    "ort": 2549,
    "orts": 2550,
    "ory": 2551,
    "os": 2552,
    "ose": 2553,
    "osed": 2554,
    "osh": 2555,
    "osp": 2556,
    "oss": 2557,
    "ost": 2558,
    "ot": 2559,
    "ota": 2560,
    "otal": 2561,
    "ote": 2562,
    "oth": 2563,
    "other": 2564,
    "oto": 2565,
    "otos": 2566,
    "ots": 2567,
    "ott": 2568,
    "otus": 2569,
    "ou": 2570,
    "ough": 2571,
    "ould": 2572,
    "oun": 2573,
    "ound": 2574,
    "ount": 2575,
    "oup": 2576,
    "our": 2577,
    "ource": 2578,
    "ous": 2579,
    "out": 2580,
    "ov": 2581,
    "ova": 2582,
    "over": 2583,
    "ow": 2584,
    "ower": 2585,
    "own": 2586,
    "ows": 2587,
    "ox": 2588,
    "oy": 2589,
    "oak": 2590,
    "obama": 2591,
    "obj": 2592,
    "object": 2593,
    "obs": 2594,
    "obviously": 2595,
    "occ": 2596,
    "occup": 2597,
    "ocean": 2598,
    "oct": 2599,
    "october": 2600,
    "offic": 2601,
    "office": 2602,
    "officers": 2603,
    "official": 2604,
    "officials": 2605,
    "offline": 2606,
    "offset": 2607,
    "often": 2608,
    "ohio": 2609,
    "okay": 2610,
    "once": 2611,
    "online": 2612,
    "only": 2613,
    "open": 2614,
    "opening": 2615,
    "operation": 2616,
    "opp": 2617,
    "opt": 2618,
    "option": 2619,
    "optional": 2620,
    "options": 2621,
    "oracle": 2622,
    "orange": 2623,
    "order": 2624,
    "orderable": 2625,
    "oregon": 2626,
    "org": 2627,
    "organ": 2628,
    "orig": 2629,
    "origin": 2630,
    "original": 2631,
    "originally": 2632,
    "others": 2633,
    "otherwise": 2634,
    "output": 2635,
    "outside": 2636,
    "overall": 2637,
    "override": 2638,
    "overview": 2639,
    "owner": 2640,
    "p": 2641,
    "pa": 2642,
    "pac": 2643,
    "par": 2644,
    "part": 2645,
    "pass": 2646,
    "path": 2647,
    "pb": 2648,
    "pc": 2649,
    "pd": 2650,
    "pdate": 2651,
    "pdated": 2652,
    "pdf": 2653,
    "pe": 2654,
    "per": 2655,
    "pet": 2656,
    "pf": 2657,
    "pg": 2658,
    "ph": 2659,
    "photos": 2660,
    "pi": 2661,
    "pin": 2662,
    "pk": 2663,
    "pl": 2664,
    "pla": 2665,
    "play": 2666,
    "ple": 2667,
    "plic": 2668,
    "plied": 2669,
    "pm": 2670,
    "pn": 2671,
    "po": 2672,
    "pol": 2673,
    "por": 2674,
    "port": 2675,
    "pos": 2676,
    "pose": 2677,
    "post": 2678,
    "pp": 2679,
    "pr": 2680,
    "pre": 2681,
    "pres": 2682,
    "press": 2683,
    "pro": 2684,
    "prov": 2685,
    "ps": 2686,
    "pt": 2687,
    "pu": 2688,
    "put": 2689,
    "pacific": 2690,
    "pack": 2691,
    "package": 2692,
    "pad": 2693,
    "page": 2694,
    "pages": 2695,
    "pain": 2696,
    "pak": 2697,
    "pakistan": 2698,
    "pal": 2699,
    "palest": 2700,
    "palestinian": 2701,
    "pan": 2702,
    "pand": 2703,
    "panel": 2704,
    "paper": 2705,
    "param": 2706,
    "parameter": 2707,
    "parameters": 2708,
    "parent": 2709,
    "parents": 2710,
    "paris": 2711,
    "park": 2712,
    "parser": 2713,
    "particip": 2714,
    "parts": 2715,
    "party": 2716,
    "password": 2717,
    "past": 2718,
    "pat": 2719,
    "patch": 2720,
    "patrick": 2721,
    "pattern": 2722,
    "paul": 2723,
    "pause": 2724,
    "pay": 2725,
    "peace": 2726,
    "pear": 2727,
    "ped": 2728,
    "pen": 2729,
    "penn": 2730,
    "people": 2731,
    "percent": 2732,
    "perfect": 2733,
    "performance": 2734,
    "perhaps": 2735,
    "pers": 2736,
    "person": 2737,
    "personal": 2738,
    "personally": 2739,
    "peter": 2740,
    "phase": 2741,
    "phil": 2742,
    "philadelphia": 2743,
    "philipp": 2744,
    "phill": 2745,
    "phoenix": 2746,
    "phone": 2747,
    "phones": 2748,
    "phot": 2749,
    "photo": 2750,
    "phys": 2751,
    "physical": 2752,
    "pic": 2753,
    "pick": 2754,
    "pict": 2755,
    "picture": 2756,
    "pie": 2757,
    "pierre": 2758,
    "ping": 2759,
    "pink": 2760,
    "pinterest": 2761,
    "pir": 2762,
    "pitt": 2763,
    "pixel": 2764,
    "place": 2765,
    "plan": 2766,
    "planet": 2767,
    "platform": 2768,
    "player": 2769,
    "players": 2770,
    "playing": 2771,
    "please": 2772,
    "plex": 2773,
    "plot": 2774,
    "plug": 2775,
    "plugin": 2776,
    "plus": 2777,
    "pocket": 2778,
    "pod": 2779,
    "point": 2780,
    "points": 2781,
    "pokemon": 2782,
    "pok\u00e3\u00a9": 2783,
    "pok\u00e3\u00a9mon": 2784,
    "police": 2785,
    "policy": 2786,
    "polit": 2787,
    "political": 2788,
    "politics": 2789,
    "poll": 2790,
    "poly": 2791,
    "pont": 2792,
    "pool": 2793,
    "poor": 2794,
    "pop": 2795,
    "pope": 2796,
    "population": 2797,
    "portland": 2798,
    "position": 2799,
    "posted": 2800,
    "posts": 2801,
    "pot": 2802,
    "power": 2803,
    "pract": 2804,
    "pred": 2805,
    "pref": 2806,
    "prem": 2807,
    "premium": 2808,
    "prep": 2809,
    "present": 2810,
    "president": 2811,
    "pretty": 2812,
    "prev": 2813,
    "preview": 2814,
    "previous": 2815,
    "previously": 2816,
    "pri": 2817,
    "price": 2818,
    "prim": 2819,
    "primary": 2820,
    "prime": 2821,
    "prin": 2822,
    "princ": 2823,
    "prince": 2824,
    "print": 2825,
    "prior": 2826,
    "priv": 2827,
    "privacy": 2828,
    "private": 2829,
    "probably": 2830,
    "problem": 2831,
    "process": 2832,
    "produ": 2833,
    "product": 2834,
    "production": 2835,
    "products": 2836,
    "prof": 2837,
    "professional": 2838,
    "professor": 2839,
    "profile": 2840,
    "program": 2841,
    "progress": 2842,
    "project": 2843,
    "prom": 2844,
    "proof": 2845,
    "prop": 2846,
    "property": 2847,
    "pros": 2848,
    "prosecut": 2849,
    "prosecutors": 2850,
    "prot": 2851,
    "protect": 2852,
    "provider": 2853,
    "proxy": 2854,
    "psy": 2855,
    "psynetmessage": 2856,
    "psych": 2857,
    "ptr": 2858,
    "pub": 2859,
    "public": 2860,
    "published": 2861,
    "publisher": 2862,
    "pull": 2863,
    "pur": 2864,
    "purchase": 2865,
    "pure": 2866,
    "push": 2867,
    "putin": 2868,
    "putting": 2869,
    "py": 2870,
    "python": 2871,
    "q": 2872,
    "qb": 2873,
    "ql": 2874,
    "qu": 2875,
    "quest": 2876,
    "qui": 2877,
    "quire": 2878,
    "qaeda": 2879,
    "qaida": 2880,
    "qual": 2881,
    "quality": 2882,
    "quant": 2883,
    "quantity": 2884,
    "que": 2885,
    "queen": 2886,
    "query": 2887,
    "question": 2888,
    "questions": 2889,
    "queue": 2890,
    "quick": 2891,
    "quite": 2892,
    "quote": 2893,
    "quotes": 2894,
    "r": 2895,
    "ra": 2896,
    "raft": 2897,
    "rag": 2898,
    "ral": 2899,
    "ram": 2900,
    "rant": 2901,
    "raw": 2902,
    "ray": 2903,
    "rb": 2904,
    "rc": 2905,
    "rd": 2906,
    "re": 2907,
    "read": 2908,
    "ream": 2909,
    "rec": 2910,
    "rect": 2911,
    "red": 2912,
    "redacted": 2913,
    "ree": 2914,
    "ref": 2915,
    "reg": 2916,
    "rel": 2917,
    "related": 2918,
    "rem": 2919,
    "rep": 2920,
    "res": 2921,
    "results": 2922,
    "ret": 2923,
    "rf": 2924,
    "rfc": 2925,
    "rg": 2926,
    "rgb": 2927,
    "rh": 2928,
    "ri": 2929,
    "ric": 2930,
    "rip": 2931,
    "ript": 2932,
    "rl": 2933,
    "rm": 2934,
    "rn": 2935,
    "rna": 2936,
    "ro": 2937,
    "rom": 2938,
    "ron": 2939,
    "ror": 2940,
    "rp": 2941,
    "rpg": 2942,
    "rr": 2943,
    "rs": 2944,
    "rt": 2945,
    "rw": 2946,
    "ry": 2947,
    "race": 2948,
    "rachel": 2949,
    "rad": 2950,
    "radio": 2951,
    "rah": 2952,
    "raid": 2953,
    "rail": 2954,
    "rain": 2955,
    "rand": 2956,
    "random": 2957,
    "range": 2958,
    "rank": 2959,
    "ranked": 2960,
    "rap": 2961,
    "rare": 2962,
    "rat": 2963,
    "rate": 2964,
    "rated": 2965,
    "rather": 2966,
    "rating": 2967,
    "raven": 2968,
    "reader": 2969,
    "reading": 2970,
    "ready": 2971,
    "real": 2972,
    "really": 2973,
    "reason": 2974,
    "reb": 2975,
    "recent": 2976,
    "recently": 2977,
    "recipe": 2978,
    "recomm": 2979,
    "recommend": 2980,
    "recommended": 2981,
    "record": 2982,
    "redd": 2983,
    "reddit": 2984,
    "redditor": 2985,
    "refer": 2986,
    "reference": 2987,
    "references": 2988,
    "regarding": 2989,
    "regardless": 2990,
    "region": 2991,
    "register": 2992,
    "registered": 2993,
    "registration": 2994,
    "regular": 2995,
    "reilly": 2996,
    "relations": 2997,
    "release": 2998,
    "released": 2999,
    "reloaded": 3000,
    "remember": 3001,
    "remote": 3002,
    "remove": 3003,
    "removed": 3004,
    "ren": 3005,
    "render": 3006,
    "repe": 3007,
    "repeat": 3008,
    "repl": 3009,
    "reply": 3010,
    "report": 3011,
    "reporting": 3012,
    "reports": 3013,
    "represent": 3014,
    "republic": 3015,
    "republican": 3016,
    "republicans": 3017,
    "requ": 3018,
    "request": 3019,
    "required": 3020,
    "requirements": 3021,
    "requires": 3022,
    "research": 3023,
    "researchers": 3024,
    "residents": 3025,
    "resource": 3026,
    "resources": 3027,
    "resp": 3028,
    "response": 3029,
    "rest": 3030,
    "result": 3031,
    "return": 3032,
    "returns": 3033,
    "reuters": 3034,
    "rev": 3035,
    "review": 3036,
    "reviewed": 3037,
    "reviewer": 3038,
    "revolution": 3039,
    "rew": 3040,
    "reward": 3041,
    "rex": 3042,
    "rich": 3043,
    "richard": 3044,
    "rick": 3045,
    "right": 3046,
    "ring": 3047,
    "river": 3048,
    "road": 3049,
    "roaming": 3050,
    "rob": 3051,
    "rober": 3052,
    "robert": 3053,
    "roberts": 3054,
    "robin": 3055,
    "rock": 3056,
    "rocket": 3057,
    "rod": 3058,
    "rog": 3059,
    "roger": 3060,
    "rogue": 3061,
    "role": 3062,
    "roll": 3063,
    "roman": 3064,
    "romney": 3065,
    "room": 3066,
    "root": 3067,
    "ros": 3068,
    "rose": 3069,
    "ross": 3070,
    "rot": 3071,
    "round": 3072,
    "route": 3073,
    "row": 3074,
    "roy": 3075,
    "royal": 3076,
    "ru": 3077,
    "rub": 3078,
    "ruby": 3079,
    "rule": 3080,
    "rules": 3081,
    "rum": 3082,
    "run": 3083,
    "runner": 3084,
    "running": 3085,
    "runtime": 3086,
    "rus": 3087,
    "rush": 3088,
    "russ": 3089,
    "russell": 3090,
    "russia": 3091,
    "russian": 3092,
    "rust": 3093,
    "ryan": 3094,
    "s": 3095,
    "sa": 3096,
    "sam": 3097,
    "san": 3098,
    "say": 3099,
    "sb": 3100,
    "sc": 3101,
    "scp": 3102,
    "sd": 3103,
    "se": 3104,
    "sea": 3105,
    "sec": 3106,
    "see": 3107,
    "select": 3108,
    "ser": 3109,
    "set": 3110,
    "sf": 3111,
    "sg": 3112,
    "sh": 3113,
    "sha": 3114,
    "share": 3115,
    "ship": 3116,
    "si": 3117,
    "sign": 3118,
    "sim": 3119,
    "size": 3120,
    "sk": 3121,
    "sl": 3122,
    "sm": 3123,
    "sn": 3124,
    "so": 3125,
    "son": 3126,
    "source": 3127,
    "sp": 3128,
    "spa": 3129,
    "spec": 3130,
    "sponsored": 3131,
    "sql": 3132,
    "sr": 3133,
    "ss": 3134,
    "ssl": 3135,
    "st": 3136,
    "star": 3137,
    "stat": 3138,
    "state": 3139,
    "std": 3140,
    "stdout": 3141,
    "ste": 3142,
    "stem": 3143,
    "step": 3144,
    "ster": 3145,
    "ston": 3146,
    "str": 3147,
    "struct": 3148,
    "su": 3149,
    "sup": 3150,
    "sw": 3151,
    "sy": 3152,
    "sab": 3153,
    "sac": 3154,
    "sad": 3155,
    "sadly": 3156,
    "safe": 3157,
    "safety": 3158,
    "sah": 3159,
    "saharan": 3160,
    "said": 3161,
    "saint": 3162,
    "sal": 3163,
    "sales": 3164,
    "salt": 3165,
    "same": 3166,
    "sample": 3167,
    "samsung": 3168,
    "sand": 3169,
    "sanders": 3170,
    "santa": 3171,
    "sarah": 3172,
    "sat": 3173,
    "saturday": 3174,
    "saudi": 3175,
    "sav": 3176,
    "save": 3177,
    "sax": 3178,
    "scale": 3179,
    "scan": 3180,
    "scar": 3181,
    "scene": 3182,
    "sch": 3183,
    "sche": 3184,
    "school": 3185,
    "science": 3186,
    "scient": 3187,
    "scientists": 3188,
    "scope": 3189,
    "score": 3190,
    "scot": 3191,
    "scotland": 3192,
    "scott": 3193,
    "screen": 3194,
    "screenshot": 3195,
    "script": 3196,
    "scroll": 3197,
    "sean": 3198,
    "search": 3199,
    "season": 3200,
    "seattle": 3201,
    "second": 3202,
    "secondly": 3203,
    "secret": 3204,
    "secretary": 3205,
    "section": 3206,
    "secure": 3207,
    "security": 3208,
    "seeing": 3209,
    "seg": 3210,
    "sel": 3211,
    "self": 3212,
    "sem": 3213,
    "semitic": 3214,
    "semitism": 3215,
    "sen": 3216,
    "senate": 3217,
    "senator": 3218,
    "send": 3219,
    "senior": 3220,
    "sense": 3221,
    "sensor": 3222,
    "sent": 3223,
    "sep": 3224,
    "sept": 3225,
    "september": 3226,
    "sequ": 3227,
    "serial": 3228,
    "series": 3229,
    "seriously": 3230,
    "serv": 3231,
    "server": 3232,
    "service": 3233,
    "services": 3234,
    "session": 3235,
    "setting": 3236,
    "settings": 3237,
    "setup": 3238,
    "seven": 3239,
    "several": 3240,
    "sex": 3241,
    "sexual": 3242,
    "shadow": 3243,
    "sham": 3244,
    "shape": 3245,
    "shar": 3246,
    "shares": 3247,
    "sharp": 3248,
    "she": 3249,
    "shell": 3250,
    "sher": 3251,
    "shield": 3252,
    "shift": 3253,
    "shin": 3254,
    "shipping": 3255,
    "shock": 3256,
    "shop": 3257,
    "short": 3258,
    "shortly": 3259,
    "shot": 3260,
    "should": 3261,
    "show": 3262,
    "shut": 3263,
    "side": 3264,
    "sil": 3265,
    "silver": 3266,
    "similar": 3267,
    "similarly": 3268,
    "simon": 3269,
    "simple": 3270,
    "simply": 3271,
    "sin": 3272,
    "since": 3273,
    "sing": 3274,
    "single": 3275,
    "sir": 3276,
    "sit": 3277,
    "site": 3278,
    "six": 3279,
    "skill": 3280,
    "skin": 3281,
    "skip": 3282,
    "sky": 3283,
    "sleep": 3284,
    "slot": 3285,
    "slow": 3286,
    "small": 3287,
    "smart": 3288,
    "smith": 3289,
    "snake": 3290,
    "snap": 3291,
    "snow": 3292,
    "soc": 3293,
    "social": 3294,
    "socket": 3295,
    "soft": 3296,
    "software": 3297,
    "sol": 3298,
    "solar": 3299,
    "sold": 3300,
    "solid": 3301,
    "solution": 3302,
    "some": 3303,
    "someone": 3304,
    "something": 3305,
    "sometimes": 3306,
    "song": 3307,
    "sony": 3308,
    "soon": 3309,
    "sorry": 3310,
    "sort": 3311,
    "soul": 3312,
    "sound": 3313,
    "sounds": 3314,
    "sourcefile": 3315,
    "sources": 3316,
    "south": 3317,
    "southern": 3318,
    "sov": 3319,
    "soviet": 3320,
    "space": 3321,
    "spaceengineers": 3322,
    "spain": 3323,
    "spanish": 3324,
    "spawn": 3325,
    "spe": 3326,
    "speaking": 3327,
    "special": 3328,
    "specific": 3329,
    "specifically": 3330,
    "spect": 3331,
    "speed": 3332,
    "spell": 3333,
    "sphere": 3334,
    "spider": 3335,
    "spirit": 3336,
    "spl": 3337,
    "split": 3338,
    "spoiler": 3339,
    "spons": 3340,
    "sport": 3341,
    "sports": 3342,
    "spot": 3343,
    "spr": 3344,
    "spread": 3345,
    "spring": 3346,
    "squ": 3347,
    "square": 3348,
    "stack": 3349,
    "staff": 3350,
    "stage": 3351,
    "stan": 3352,
    "stand": 3353,
    "standard": 3354,
    "standing": 3355,
    "stars": 3356,
    "start": 3357,
    "starting": 3358,
    "statement": 3359,
    "states": 3360,
    "static": 3361,
    "station": 3362,
    "statistics": 3363,
    "stats": 3364,
    "status": 3365,
    "stay": 3366,
    "steam": 3367,
    "steel": 3368,
    "stephen": 3369,
    "steve": 3370,
    "steven": 3371,
    "stew": 3372,
    "still": 3373,
    "stock": 3374,
    "stone": 3375,
    "stop": 3376,
    "storage": 3377,
    "store": 3378,
    "storm": 3379,
    "story": 3380,
    "stra": 3381,
    "strange": 3382,
    "stre": 3383,
    "stream": 3384,
    "streamer": 3385,
    "streamerbot": 3386,
    "street": 3387,
    "strength": 3388,
    "stretch": 3389,
    "strike": 3390,
    "string": 3391,
    "strong": 3392,
    "stud": 3393,
    "student": 3394,
    "students": 3395,
    "studies": 3396,
    "studio": 3397,
    "study": 3398,
    "sty": 3399,
    "style": 3400,
    "sub": 3401,
    "subject": 3402,
    "submit": 3403,
    "subscribe": 3404,
    "success": 3405,
    "such": 3406,
    "suddenly": 3407,
    "suggest": 3408,
    "sullivan": 3409,
    "sum": 3410,
    "summary": 3411,
    "summer": 3412,
    "sun": 3413,
    "sund": 3414,
    "sunday": 3415,
    "super": 3416,
    "supp": 3417,
    "supplement": 3418,
    "support": 3419,
    "supported": 3420,
    "supporters": 3421,
    "sur": 3422,
    "sure": 3423,
    "surv": 3424,
    "sus": 3425,
    "susan": 3426,
    "swe": 3427,
    "sweet": 3428,
    "switch": 3429,
    "sword": 3430,
    "sym": 3431,
    "syn": 3432,
    "sync": 3433,
    "synopsis": 3434,
    "syria": 3435,
    "syrian": 3436,
    "sys": 3437,
    "system": 3438,
    "t": 3439,
    "ta": 3440,
    "table": 3441,
    "tag": 3442,
    "tain": 3443,
    "tb": 3444,
    "tc": 3445,
    "td": 3446,
    "te": 3447,
    "ted": 3448,
    "ter": 3449,
    "tern": 3450,
    "text": 3451,
    "texture": 3452,
    "tf": 3453,
    "tg": 3454,
    "th": 3455,
    "the": 3456,
    "ther": 3457,
    "thing": 3458,
    "this": 3459,
    "ti": 3460,
    "time": 3461,
    "ting": 3462,
    "tion": 3463,
    "tit": 3464,
    "tl": 3465,
    "tm": 3466,
    "tn": 3467,
    "to": 3468,
    "ton": 3469,
    "top": 3470,
    "tor": 3471,
    "tp": 3472,
    "tpp": 3473,
    "tppstreamerbot": 3474,
    "tps": 3475,
    "tr": 3476,
    "trump": 3477,
    "try": 3478,
    "ts": 3479,
    "tt": 3480,
    "tv": 3481,
    "tw": 3482,
    "tx": 3483,
    "ty": 3484,
    "type": 3485,
    "tab": 3486,
    "tact": 3487,
    "tags": 3488,
    "tai": 3489,
    "take": 3490,
    "taking": 3491,
    "tal": 3492,
    "talk": 3493,
    "talking": 3494,
    "tam": 3495,
    "tan": 3496,
    "tang": 3497,
    "tank": 3498,
    "tap": 3499,
    "tar": 3500,
    "target": 3501,
    "task": 3502,
    "tax": 3503,
    "taylor": 3504,
    "tex": 3505,
    "tea": 3506,
    "team": 3507,
    "tech": 3508,
    "techn": 3509,
    "technical": 3510,
    "technology": 3511,
    "teen": 3512,
    "tel": 3513,
    "tele": 3514,
    "tell": 3515,
    "tem": 3516,
    "temp": 3517,
    "temperature": 3518,
    "template": 3519,
    "ten": 3520,
    "tenn": 3521,
    "term": 3522,
    "termin": 3523,
    "terror": 3524,
    "terry": 3525,
    "tes": 3526,
    "tesla": 3527,
    "test": 3528,
    "testing": 3529,
    "texas": 3530,
    "textcolor": 3531,
    "textures": 3532,
    "thank": 3533,
    "thankfully": 3534,
    "thanks": 3535,
    "that": 3536,
    "their": 3537,
    "theme": 3538,
    "then": 3539,
    "there": 3540,
    "therefore": 3541,
    "these": 3542,
    "they": 3543,
    "things": 3544,
    "think": 3545,
    "third": 3546,
    "thirty": 3547,
    "thom": 3548,
    "thomas": 3549,
    "thompson": 3550,
    "thor": 3551,
    "those": 3552,
    "though": 3553,
    "thousands": 3554,
    "thread": 3555,
    "three": 3556,
    "through": 3557,
    "throughout": 3558,
    "throw": 3559,
    "thu": 3560,
    "thumbnail": 3561,
    "thumbnailimage": 3562,
    "thunder": 3563,
    "thursday": 3564,
    "thus": 3565,
    "tickets": 3566,
    "tier": 3567,
    "tile": 3568,
    "tim": 3569,
    "timeout": 3570,
    "timer": 3571,
    "times": 3572,
    "tip": 3573,
    "tips": 3574,
    "title": 3575,
    "today": 3576,
    "todd": 3577,
    "together": 3578,
    "tok": 3579,
    "token": 3580,
    "tokens": 3581,
    "tom": 3582,
    "tomorrow": 3583,
    "tonight": 3584,
    "tony": 3585,
    "too": 3586,
    "tool": 3587,
    "tools": 3588,
    "topic": 3589,
    "topics": 3590,
    "toronto": 3591,
    "torrent": 3592,
    "total": 3593,
    "touch": 3594,
    "tour": 3595,
    "town": 3596,
    "toy": 3597,
    "tra": 3598,
    "track": 3599,
    "tracker": 3600,
    "trade": 3601,
    "traditional": 3602,
    "train": 3603,
    "training": 3604,
    "trans": 3605,
    "transaction": 3606,
    "transfer": 3607,
    "transform": 3608,
    "translation": 3609,
    "travel": 3610,
    "tre": 3611,
    "tree": 3612,
    "trend": 3613,
    "tri": 3614,
    "trigger": 3615,
    "trivia": 3616,
    "tro": 3617,
    "true": 3618,
    "trust": 3619,
    "truth": 3620,
    "tu": 3621,
    "tube": 3622,
    "tue": 3623,
    "tuesday": 3624,
    "tumblr": 3625,
    "tur": 3626,
    "turkey": 3627,
    "turkish": 3628,
    "turn": 3629,
    "twe": 3630,
    "tweet": 3631,
    "twenty": 3632,
    "twitter": 3633,
    "two": 3634,
    "tyler": 3635,
    "typ": 3636,
    "types": 3637,
    "typically": 3638,
    "u": 3639,
    "ua": 3640,
    "ual": 3641,
    "ub": 3642,
    "uc": 3643,
    "uck": 3644,
    "uct": 3645,
    "ud": 3646,
    "ue": 3647,
    "ues": 3648,
    "uf": 3649,
    "ufc": 3650,
    "uff": 3651,
    "ug": 3652,
    "ugc": 3653,
    "uge": 3654,
    "ugh": 3655,
    "ui": 3656,
    "uid": 3657,
    "uk": 3658,
    "ul": 3659,
    "ular": 3660,
    "ule": 3661,
    "ull": 3662,
    "ult": 3663,
    "ults": 3664,
    "um": 3665,
    "ume": 3666,
    "ump": 3667,
    "un": 3668,
    "unch": 3669,
    "une": 3670,
    "up": 3671,
    "update": 3672,
    "ur": 3673,
    "ura": 3674,
    "ure": 3675,
    "ures": 3676,
    "uri": 3677,
    "url": 3678,
    "urn": 3679,
    "urr": 3680,
    "urrent": 3681,
    "us": 3682,
    "usa": 3683,
    "usb": 3684,
    "usd": 3685,
    "use": 3686,
    "user": 3687,
    "ush": 3688,
    "uss": 3689,
    "ust": 3690,
    "ut": 3691,
    "utc": 3692,
    "ute": 3693,
    "uters": 3694,
    "utf": 3695,
    "uth": 3696,
    "ution": 3697,
    "uu": 3698,
    "uv": 3699,
    "ux": 3700,
    "uber": 3701,
    "uh": 3702,
    "ukraine": 3703,
    "ultimate": 3704,
    "ultimately": 3705,
    "ultra": 3706,
    "uncommon": 3707,
    "und": 3708,
    "under": 3709,
    "understanding": 3710,
    "unfortunately": 3711,
    "union": 3712,
    "unique": 3713,
    "unit": 3714,
    "united": 3715,
    "unity": 3716,
    "universal": 3717,
    "university": 3718,
    "unix": 3719,
    "unknown": 3720,
    "unless": 3721,
    "unlike": 3722,
    "unt": 3723,
    "until": 3724,
    "untitled": 3725,
    "updated": 3726,
    "upgrade": 3727,
    "upload": 3728,
    "upon": 3729,
    "urban": 3730,
    "usage": 3731,
    "used": 3732,
    "users": 3733,
    "using": 3734,
    "usually": 3735,
    "utah": 3736,
    "v": 3737,
    "va": 3738,
    "val": 3739,
    "value": 3740,
    "vb": 3741,
    "vc": 3742,
    "vd": 3743,
    "ve": 3744,
    "vel": 3745,
    "ven": 3746,
    "ver": 3747,
    "vers": 3748,
    "version": 3749,
    "vert": 3750,
    "vertis": 3751,
    "vertisement": 3752,
    "vg": 3753,
    "vi": 3754,
    "vice": 3755,
    "vid": 3756,
    "video": 3757,
    "vidia": 3758,
    "view": 3759,
    "vii": 3760,
    "ville": 3761,
    "vis": 3762,
    "vk": 3763,
    "vl": 3764,
    "vm": 3765,
    "vo": 3766,
    "vol": 3767,
    "vp": 3768,
    "vpn": 3769,
    "vr": 3770,
    "vs": 3771,
    "vt": 3772,
    "vw": 3773,
    "valid": 3774,
    "values": 3775,
    "van": 3776,
    "var": 3777,
    "vari": 3778,
    "variable": 3779,
    "various": 3780,
    "vaults": 3781,
    "vector": 3782,
    "veh": 3783,
    "versions": 3784,
    "very": 3785,
    "veter": 3786,
    "via": 3787,
    "vict": 3788,
    "victoria": 3789,
    "vill": 3790,
    "viol": 3791,
    "virgin": 3792,
    "virginia": 3793,
    "virtual": 3794,
    "vision": 3795,
    "visit": 3796,
    "visual": 3797,
    "voice": 3798,
    "volume": 3799,
    "vote": 3800,
    "w": 3801,
    "wa": 3802,
    "war": 3803,
    "ward": 3804,
    "ware": 3805,
    "warn": 3806,
    "warning": 3807,
    "washington": 3808,
    "watch": 3809,
    "way": 3810,
    "ways": 3811,
    "wb": 3812,
    "wc": 3813,
    "wd": 3814,
    "we": 3815,
    "wer": 3816,
    "wf": 3817,
    "wh": 3818,
    "what": 3819,
    "where": 3820,
    "who": 3821,
    "wi": 3822,
    "win": 3823,
    "wind": 3824,
    "windows": 3825,
    "wm": 3826,
    "wn": 3827,
    "wood": 3828,
    "wor": 3829,
    "work": 3830,
    "wp": 3831,
    "wr": 3832,
    "ws": 3833,
    "wt": 3834,
    "ww": 3835,
    "wait": 3836,
    "wal": 3837,
    "walk": 3838,
    "walker": 3839,
    "wall": 3840,
    "wallet": 3841,
    "wan": 3842,
    "want": 3843,
    "warren": 3844,
    "wars": 3845,
    "was": 3846,
    "water": 3847,
    "wave": 3848,
    "weak": 3849,
    "weapon": 3850,
    "weapons": 3851,
    "weather": 3852,
    "web": 3853,
    "website": 3854,
    "wed": 3855,
    "wednesday": 3856,
    "week": 3857,
    "weight": 3858,
    "weiss": 3859,
    "welcome": 3860,
    "well": 3861,
    "were": 3862,
    "west": 3863,
    "western": 3864,
    "whatever": 3865,
    "whe": 3866,
    "wheel": 3867,
    "when": 3868,
    "whenever": 3869,
    "whereas": 3870,
    "whether": 3871,
    "which": 3872,
    "while": 3873,
    "whit": 3874,
    "white": 3875,
    "whoever": 3876,
    "why": 3877,
    "wide": 3878,
    "widget": 3879,
    "width": 3880,
    "wik": 3881,
    "wiki": 3882,
    "wikipedia": 3883,
    "wil": 3884,
    "wild": 3885,
    "will": 3886,
    "william": 3887,
    "williams": 3888,
    "wilson": 3889,
    "window": 3890,
    "wing": 3891,
    "winged": 3892,
    "winner": 3893,
    "winter": 3894,
    "wire": 3895,
    "wisconsin": 3896,
    "with": 3897,
    "withno": 3898,
    "within": 3899,
    "without": 3900,
    "witness": 3901,
    "wo": 3902,
    "wolf": 3903,
    "woman": 3904,
    "women": 3905,
    "wonder": 3906,
    "word": 3907,
    "words": 3908,
    "working": 3909,
    "works": 3910,
    "world": 3911,
    "would": 3912,
    "wow": 3913,
    "wra": 3914,
    "writ": 3915,
    "write": 3916,
    "writer": 3917,
    "writing": 3918,
    "written": 3919,
    "x": 3920,
    "xl": 3921,
    "xm": 3922,
    "xp": 3923,
    "xt": 3924,
    "xx": 3925,
    "xy": 3926,
    "xbox": 3927,
    "xi": 3928,
    "y": 3929,
    "ya": 3930,
    "yc": 3931,
    "yd": 3932,
    "ye": 3933,
    "yes": 3934,
    "ying": 3935,
    "yl": 3936,
    "yn": 3937,
    "you": 3938,
    "yp": 3939,
    "yr": 3940,
    "ys": 3941,
    "yy": 3942,
    "yan": 3943,
    "yang": 3944,
    "yeah": 3945,
    "year": 3946,
    "years": 3947,
    "yellow": 3948,
    "yep": 3949,
    "yesterday": 3950,
    "yet": 3951,
    "yo": 3952,
    "york": 3953,
    "youtube": 3954,
    "young": 3955,
    "your": 3956,
    "yu": 3957,
    "z": 3958,
    "za": 3959,
    "ze": 3960,
    "zi": 3961,
    "zx": 3962,
    "zz": 3963,
    "zen": 3964,
    "zero": 3965,
    "zip": 3966,
    "zone": 3967,
    "[": 3968,
    "['": 3969,
    "\\": 3970,
    "\\'": 3971,
    "]": 3972,
    "]'": 3973,
    "^": 3974,
    "_": 3975,
    "`": 3976,
    "aah": 3977,
    "aan": 3978,
    "aba": 3979,
    "abad": 3980,
    "abal": 3981,
    "abama": 3982,
    "aban": 3983,
    "aband": 3984,
    "abase": 3985,
    "abases": 3986,
    "abb": 3987,
    "abba": 3988,
    "abbage": 3989,
    "abbit": 3990,
    "abbling": 3991,
    "abby": 3992,
    "abe": 3993,
    "abee": 3994,
    "abel": 3995,
    "abella": 3996,
    "aber": 3997,
    "abet": 3998,
    "abetes": 3999,
    "abeth": 4000,
    "abetic": 4001,
    "abi": 4002,
    "abiding": 4003,
    "abies": 4004,
    "abil": 4005,
    "abilia": 4006,
    "abilities": 4007,
    "abin": 4008,
    "abis": 4009,
    "abit": 4010,
    "abl": 4011,
    "abled": 4012,
    "ables": 4013,
    "abling": 4014,
    "ablish": 4015,
    "ablished": 4016,
    "ablishment": 4017,
    "ablo": 4018,
    "ably": 4019,
    "abo": 4020,
    "abol": 4021,
    "abolic": 4022,
    "abor": 4023,
    "abortion": 4024,
    "abouts": 4025,
    "abre": 4026,
    "absolute": 4027,
    "absor": 4028,
    "abul": 4029,
    "abulary": 4030,
    "abus": 4031,
    "abuse": 4032,
    "abwe": 4033,
    "aby": 4034,
    "abyte": 4035,
    "abytes": 4036,
    "acan": 4037,
    "acas": 4038,
    "acca": 4039,
    "acceptable": 4040,
    "accessible": 4041,
    "acci": 4042,
    "acco": 4043,
    "accompan": 4044,
    "accompanied": 4045,
    "acea": 4046,
    "aceae": 4047,
    "acebook": 4048,
    "aced": 4049,
    "acement": 4050,
    "acements": 4051,
    "acent": 4052,
    "aceous": 4053,
    "acer": 4054,
    "acerb": 4055,
    "acers": 4056,
    "aces": 4057,
    "acet": 4058,
    "aceutical": 4059,
    "acey": 4060,
    "acha": 4061,
    "achable": 4062,
    "ache": 4063,
    "ached": 4064,
    "achel": 4065,
    "achelor": 4066,
    "acher": 4067,
    "achers": 4068,
    "aches": 4069,
    "achev": 4070,
    "achi": 4071,
    "achine": 4072,
    "aching": 4073,
    "achment": 4074,
    "acho": 4075,
    "acht": 4076,
    "achu": 4077,
    "achus": 4078,
    "achusetts": 4079,
    "achy": 4080,
    "aci": 4081,
    "acia": 4082,
    "acial": 4083,
    "acid": 4084,
    "acies": 4085,
    "acing": 4086,
    "acio": 4087,
    "acion": 4088,
    "acious": 4089,
    "aciously": 4090,
    "acist": 4091,
    "acists": 4092,
    "acity": 4093,
    "acked": 4094,
    "acker": 4095,
    "ackers": 4096,
    "acket": 4097,
    "ackets": 4098,
    "acking": 4099,
    "ackle": 4100,
    "acks": 4101,
    "acky": 4102,
    "acl": 4103,
    "acle": 4104,
    "acles": 4105,
    "acly": 4106,
    "aclysm": 4107,
    "aco": 4108,
    "acon": 4109,
    "acons": 4110,
    "acqu": 4111,
    "acre": 4112,
    "acs": 4113,
    "acter": 4114,
    "acteria": 4115,
    "acterial": 4116,
    "acters": 4117,
    "actic": 4118,
    "acting": 4119,
    "actiondate": 4120,
    "actions": 4121,
    "activate": 4122,
    "activated": 4123,
    "activation": 4124,
    "actively": 4125,
    "actly": 4126,
    "actory": 4127,
    "acts": 4128,
    "actual": 4129,
    "actus": 4130,
    "acular": 4131,
    "acus": 4132,
    "adal": 4133,
    "adan": 4134,
    "adas": 4135,
    "adata": 4136,
    "aday": 4137,
    "adays": 4138,
    "addafi": 4139,
    "adden": 4140,
    "adder": 4141,
    "adders": 4142,
    "addin": 4143,
    "addle": 4144,
    "addock": 4145,
    "addon": 4146,
    "addons": 4147,
    "addr": 4148,
    "addy": 4149,
    "aded": 4150,
    "adel": 4151,
    "adelphia": 4152,
    "adem": 4153,
    "ademic": 4154,
    "aden": 4155,
    "adena": 4156,
    "adeon": 4157,
    "adequ": 4158,
    "ader": 4159,
    "aders": 4160,
    "ades": 4161,
    "adesh": 4162,
    "adh": 4163,
    "adi": 4164,
    "adia": 4165,
    "adian": 4166,
    "adiator": 4167,
    "adic": 4168,
    "adier": 4169,
    "adies": 4170,
    "adin": 4171,
    "ading": 4172,
    "adiq": 4173,
    "adish": 4174,
    "aditional": 4175,
    "adium": 4176,
    "adj": 4177,
    "adjusted": 4178,
    "adle": 4179,
    "ado": 4180,
    "adobe": 4181,
    "adoes": 4182,
    "ador": 4183,
    "ados": 4184,
    "adow": 4185,
    "adows": 4186,
    "adr": 4187,
    "advant": 4188,
    "advert": 4189,
    "advertising": 4190,
    "ady": 4191,
    "aea": 4192,
    "aed": 4193,
    "aeda": 4194,
    "ael": 4195,
    "aeper": 4196,
    "aepernick": 4197,
    "aer": 4198,
    "aeus": 4199,
    "aez": 4200,
    "afa": 4201,
    "afe": 4202,
    "afer": 4203,
    "afety": 4204,
    "affe": 4205,
    "affected": 4206,
    "affer": 4207,
    "affiliated": 4208,
    "affle": 4209,
    "affles": 4210,
    "afi": 4211,
    "afia": 4212,
    "afort": 4213,
    "aft": 4214,
    "aga": 4215,
    "agall": 4216,
    "agame": 4217,
    "agan": 4218,
    "aganda": 4219,
    "agar": 4220,
    "agara": 4221,
    "agascar": 4222,
    "agate": 4223,
    "aged": 4224,
    "ageddon": 4225,
    "agement": 4226,
    "agements": 4227,
    "agen": 4228,
    "agency": 4229,
    "agents": 4230,
    "ager": 4231,
    "agers": 4232,
    "agged": 4233,
    "agger": 4234,
    "agging": 4235,
    "aggressive": 4236,
    "agh": 4237,
    "aghan": 4238,
    "aghd": 4239,
    "agher": 4240,
    "aghetti": 4241,
    "agi": 4242,
    "agic": 4243,
    "agically": 4244,
    "agin": 4245,
    "agine": 4246,
    "aging": 4247,
    "agle": 4248,
    "agles": 4249,
    "agn": 4250,
    "agna": 4251,
    "agnar": 4252,
    "agne": 4253,
    "agnetic": 4254,
    "ago": 4255,
    "agog": 4256,
    "agogue": 4257,
    "agon": 4258,
    "agonal": 4259,
    "agonist": 4260,
    "agonists": 4261,
    "agons": 4262,
    "agos": 4263,
    "agra": 4264,
    "agram": 4265,
    "agraph": 4266,
    "agree": 4267,
    "ags": 4268,
    "agu": 4269,
    "ague": 4270,
    "agues": 4271,
    "agus": 4272,
    "agy": 4273,
    "aha": 4274,
    "ahah": 4275,
    "ahan": 4276,
    "ahar": 4277,
    "ahead": 4278,
    "ahi": 4279,
    "ahime": 4280,
    "ahl": 4281,
    "ahn": 4282,
    "aho": 4283,
    "ahon": 4284,
    "ahoo": 4285,
    "ahs": 4286,
    "ahu": 4287,
    "aic": 4288,
    "aida": 4289,
    "aiden": 4290,
    "aido": 4291,
    "aign": 4292,
    "aii": 4293,
    "ail": 4294,
    "aila": 4295,
    "ailability": 4296,
    "ailable": 4297,
    "ailand": 4298,
    "ailed": 4299,
    "ailing": 4300,
    "ails": 4301,
    "aily": 4302,
    "aiman": 4303,
    "aimon": 4304,
    "aina": 4305,
    "aine": 4306,
    "ained": 4307,
    "ainer": 4308,
    "ainers": 4309,
    "aining": 4310,
    "ainment": 4311,
    "ains": 4312,
    "aint": 4313,
    "aintain": 4314,
    "ainted": 4315,
    "aints": 4316,
    "aird": 4317,
    "aire": 4318,
    "aired": 4319,
    "aires": 4320,
    "airo": 4321,
    "airs": 4322,
    "airy": 4323,
    "ais": 4324,
    "ait": 4325,
    "aith": 4326,
    "aito": 4327,
    "aj": 4328,
    "aja": 4329,
    "aji": 4330,
    "ajo": 4331,
    "ajor": 4332,
    "aka": 4333,
    "akable": 4334,
    "ake": 4335,
    "aked": 4336,
    "akedown": 4337,
    "aken": 4338,
    "akening": 4339,
    "akens": 4340,
    "aker": 4341,
    "akers": 4342,
    "akeru": 4343,
    "akery": 4344,
    "akes": 4345,
    "akespe": 4346,
    "akespeare": 4347,
    "akh": 4348,
    "aki": 4349,
    "akia": 4350,
    "akin": 4351,
    "akings": 4352,
    "akis": 4353,
    "ako": 4354,
    "akov": 4355,
    "akra": 4356,
    "aks": 4357,
    "aku": 4358,
    "akura": 4359,
    "akuya": 4360,
    "aky": 4361,
    "ala": 4362,
    "alach": 4363,
    "alam": 4364,
    "albeit": 4365,
    "album": 4366,
    "alcohol": 4367,
    "alde": 4368,
    "aldehyde": 4369,
    "aldi": 4370,
    "aldo": 4371,
    "aleb": 4372,
    "aled": 4373,
    "aleigh": 4374,
    "aler": 4375,
    "ales": 4376,
    "aley": 4377,
    "alez": 4378,
    "alf": 4379,
    "alg": 4380,
    "algia": 4381,
    "alia": 4382,
    "alian": 4383,
    "aliation": 4384,
    "alid": 4385,
    "align": 4386,
    "aligned": 4387,
    "alin": 4388,
    "aline": 4389,
    "aling": 4390,
    "alion": 4391,
    "alions": 4392,
    "alis": 4393,
    "alist": 4394,
    "alities": 4395,
    "ality": 4396,
    "alker": 4397,
    "alking": 4398,
    "alks": 4399,
    "alky": 4400,
    "alkyrie": 4401,
    "alla": 4402,
    "allas": 4403,
    "alle": 4404,
    "alled": 4405,
    "allel": 4406,
    "allery": 4407,
    "alli": 4408,
    "allic": 4409,
    "alling": 4410,
    "allion": 4411,
    "allo": 4412,
    "alloc": 4413,
    "allowed": 4414,
    "alloween": 4415,
    "alls": 4416,
    "alm": 4417,
    "alo": 4418,
    "alog": 4419,
    "alogue": 4420,
    "alogy": 4421,
    "alon": 4422,
    "alone": 4423,
    "alore": 4424,
    "alos": 4425,
    "alph": 4426,
    "alsa": 4427,
    "alsh": 4428,
    "alted": 4429,
    "alter": 4430,
    "alties": 4431,
    "alty": 4432,
    "alus": 4433,
    "aly": 4434,
    "alys": 4435,
    "alysed": 4436,
    "alyses": 4437,
    "alysis": 4438,
    "alyst": 4439,
    "amac": 4440,
    "amacare": 4441,
    "aman": 4442,
    "amar": 4443,
    "amara": 4444,
    "amaru": 4445,
    "amas": 4446,
    "amate": 4447,
    "amation": 4448,
    "amaz": 4449,
    "amba": 4450,
    "amber": 4451,
    "ambers": 4452,
    "ambling": 4453,
    "ambo": 4454,
    "amboo": 4455,
    "amed": 4456,
    "ameda": 4457,
    "amel": 4458,
    "ameless": 4459,
    "amen": 4460,
    "ament": 4461,
    "amental": 4462,
    "aments": 4463,
    "amer": 4464,
    "amera": 4465,
    "ameron": 4466,
    "amia": 4467,
    "amic": 4468,
    "amide": 4469,
    "amiliar": 4470,
    "amily": 4471,
    "amin": 4472,
    "amina": 4473,
    "amination": 4474,
    "amine": 4475,
    "aminer": 4476,
    "amines": 4477,
    "aming": 4478,
    "amins": 4479,
    "amiya": 4480,
    "aml": 4481,
    "amm": 4482,
    "ammad": 4483,
    "ammed": 4484,
    "ammers": 4485,
    "ammu": 4486,
    "ammy": 4487,
    "amn": 4488,
    "amo": 4489,
    "amon": 4490,
    "amorph": 4491,
    "amoto": 4492,
    "amous": 4493,
    "ampa": 4494,
    "amped": 4495,
    "amph": 4496,
    "amphetamine": 4497,
    "amping": 4498,
    "ampion": 4499,
    "ampions": 4500,
    "ampire": 4501,
    "ampires": 4502,
    "ample": 4503,
    "amples": 4504,
    "ampoo": 4505,
    "amps": 4506,
    "ampton": 4507,
    "ampunk": 4508,
    "amsung": 4509,
    "amura": 4510,
    "amus": 4511,
    "anamo": 4512,
    "anan": 4513,
    "anas": 4514,
    "anasia": 4515,
    "anca": 4516,
    "anced": 4517,
    "ancel": 4518,
    "ancer": 4519,
    "ancers": 4520,
    "ances": 4521,
    "anch": 4522,
    "anche": 4523,
    "anches": 4524,
    "anchester": 4525,
    "anchez": 4526,
    "ancial": 4527,
    "ancies": 4528,
    "ancing": 4529,
    "anco": 4530,
    "ancock": 4531,
    "ancouver": 4532,
    "ancy": 4533,
    "anda": 4534,
    "andal": 4535,
    "andals": 4536,
    "andan": 4537,
    "ande": 4538,
    "anded": 4539,
    "andel": 4540,
    "andem": 4541,
    "ander": 4542,
    "andering": 4543,
    "anders": 4544,
    "andestine": 4545,
    "andi": 4546,
    "anding": 4547,
    "andise": 4548,
    "ando": 4549,
    "andom": 4550,
    "andon": 4551,
    "andowski": 4552,
    "andr": 4553,
    "andra": 4554,
    "andro": 4555,
    "ands": 4556,
    "andum": 4557,
    "aned": 4558,
    "aneers": 4559,
    "aneous": 4560,
    "aneously": 4561,
    "anes": 4562,
    "aney": 4563,
    "anga": 4564,
    "angan": 4565,
    "anged": 4566,
    "anger": 4567,
    "angered": 4568,
    "angering": 4569,
    "angers": 4570,
    "anges": 4571,
    "angible": 4572,
    "anging": 4573,
    "angle": 4574,
    "angled": 4575,
    "angler": 4576,
    "angles": 4577,
    "angling": 4578,
    "ango": 4579,
    "angs": 4580,
    "angu": 4581,
    "anguage": 4582,
    "anguages": 4583,
    "anguard": 4584,
    "angular": 4585,
    "ania": 4586,
    "anian": 4587,
    "anic": 4588,
    "anical": 4589,
    "anie": 4590,
    "aniel": 4591,
    "animate": 4592,
    "animous": 4593,
    "aning": 4594,
    "anish": 4595,
    "anism": 4596,
    "anity": 4597,
    "anium": 4598,
    "anka": 4599,
    "anke": 4600,
    "anked": 4601,
    "ankind": 4602,
    "anking": 4603,
    "anks": 4604,
    "anky": 4605,
    "anmar": 4606,
    "annabin": 4607,
    "annah": 4608,
    "anned": 4609,
    "annel": 4610,
    "annels": 4611,
    "anners": 4612,
    "anni": 4613,
    "annie": 4614,
    "annis": 4615,
    "annon": 4616,
    "annot": 4617,
    "announced": 4618,
    "anny": 4619,
    "ano": 4620,
    "anoia": 4621,
    "anol": 4622,
    "anon": 4623,
    "anooga": 4624,
    "anos": 4625,
    "anova": 4626,
    "anqu": 4627,
    "ansas": 4628,
    "anse": 4629,
    "ansen": 4630,
    "anship": 4631,
    "ansion": 4632,
    "ansk": 4633,
    "anski": 4634,
    "ansky": 4635,
    "ansom": 4636,
    "anson": 4637,
    "ansson": 4638,
    "answered": 4639,
    "anta": 4640,
    "antage": 4641,
    "antam": 4642,
    "antasy": 4643,
    "ante": 4644,
    "anted": 4645,
    "antes": 4646,
    "antha": 4647,
    "anthrop": 4648,
    "antic": 4649,
    "antically": 4650,
    "anticipated": 4651,
    "antics": 4652,
    "antine": 4653,
    "anting": 4654,
    "antis": 4655,
    "antle": 4656,
    "antly": 4657,
    "anto": 4658,
    "antom": 4659,
    "anton": 4660,
    "antry": 4661,
    "ants": 4662,
    "anty": 4663,
    "antz": 4664,
    "anu": 4665,
    "anus": 4666,
    "anut": 4667,
    "anuts": 4668,
    "anwhile": 4669,
    "anya": 4670,
    "anyahu": 4671,
    "anye": 4672,
    "anyl": 4673,
    "anyon": 4674,
    "anz": 4675,
    "anza": 4676,
    "ao": 4677,
    "aos": 4678,
    "apa": 4679,
    "apache": 4680,
    "apan": 4681,
    "apeake": 4682,
    "aped": 4683,
    "apego": 4684,
    "aper": 4685,
    "apers": 4686,
    "apes": 4687,
    "apesh": 4688,
    "apeshifter": 4689,
    "apest": 4690,
    "aphael": 4691,
    "aping": 4692,
    "apist": 4693,
    "apixel": 4694,
    "aple": 4695,
    "aples": 4696,
    "apo": 4697,
    "apolis": 4698,
    "apolog": 4699,
    "apon": 4700,
    "apons": 4701,
    "apor": 4702,
    "apore": 4703,
    "appa": 4704,
    "apped": 4705,
    "append": 4706,
    "apper": 4707,
    "appers": 4708,
    "appiness": 4709,
    "apping": 4710,
    "appings": 4711,
    "appointed": 4712,
    "appro": 4713,
    "appropri": 4714,
    "appropriate": 4715,
    "appropriately": 4716,
    "approved": 4717,
    "approximately": 4718,
    "appy": 4719,
    "apse": 4720,
    "apsed": 4721,
    "apses": 4722,
    "apt": 4723,
    "apters": 4724,
    "aptic": 4725,
    "aptop": 4726,
    "apult": 4727,
    "apy": 4728,
    "aq": 4729,
    "aqu": 4730,
    "aque": 4731,
    "aques": 4732,
    "aquin": 4733,
    "arag": 4734,
    "arah": 4735,
    "arak": 4736,
    "aram": 4737,
    "aran": 4738,
    "arant": 4739,
    "arantine": 4740,
    "araoh": 4741,
    "arat": 4742,
    "arate": 4743,
    "aration": 4744,
    "arations": 4745,
    "arbon": 4746,
    "arcer": 4747,
    "arching": 4748,
    "archive": 4749,
    "archives": 4750,
    "archment": 4751,
    "archs": 4752,
    "archy": 4753,
    "arcity": 4754,
    "arde": 4755,
    "arded": 4756,
    "arden": 4757,
    "ardi": 4758,
    "arding": 4759,
    "ardless": 4760,
    "ardo": 4761,
    "ardon": 4762,
    "ardy": 4763,
    "ared": 4764,
    "aredevil": 4765,
    "arel": 4766,
    "arella": 4767,
    "arent": 4768,
    "arenthood": 4769,
    "arently": 4770,
    "arer": 4771,
    "arers": 4772,
    "ares": 4773,
    "arest": 4774,
    "aret": 4775,
    "areth": 4776,
    "arette": 4777,
    "arettes": 4778,
    "aretz": 4779,
    "arez": 4780,
    "arf": 4781,
    "arge": 4782,
    "arger": 4783,
    "argo": 4784,
    "argon": 4785,
    "argument": 4786,
    "aria": 4787,
    "arial": 4788,
    "arian": 4789,
    "arians": 4790,
    "ariat": 4791,
    "arie": 4792,
    "aries": 4793,
    "arij": 4794,
    "arijuana": 4795,
    "arily": 4796,
    "arin": 4797,
    "arine": 4798,
    "aring": 4799,
    "ario": 4800,
    "arios": 4801,
    "arious": 4802,
    "aris": 4803,
    "arist": 4804,
    "arity": 4805,
    "arium": 4806,
    "arius": 4807,
    "arkable": 4808,
    "arkin": 4809,
    "arks": 4810,
    "arl": 4811,
    "arlane": 4812,
    "arling": 4813,
    "arma": 4814,
    "armac": 4815,
    "armed": 4816,
    "arming": 4817,
    "arms": 4818,
    "arn": 4819,
    "arna": 4820,
    "arnaev": 4821,
    "arning": 4822,
    "aro": 4823,
    "aron": 4824,
    "aroo": 4825,
    "arov": 4826,
    "arranted": 4827,
    "arrass": 4828,
    "arre": 4829,
    "arrell": 4830,
    "arrett": 4831,
    "arrison": 4832,
    "arro": 4833,
    "arrow": 4834,
    "arry": 4835,
    "arse": 4836,
    "arser": 4837,
    "arsh": 4838,
    "arsity": 4839,
    "arson": 4840,
    "arta": 4841,
    "arte": 4842,
    "arted": 4843,
    "arten": 4844,
    "arter": 4845,
    "arters": 4846,
    "arth": 4847,
    "arthed": 4848,
    "arthy": 4849,
    "articles": 4850,
    "artifacts": 4851,
    "artisan": 4852,
    "artment": 4853,
    "artments": 4854,
    "artney": 4855,
    "arton": 4856,
    "arts": 4857,
    "arty": 4858,
    "artz": 4859,
    "aru": 4860,
    "arus": 4861,
    "arya": 4862,
    "aryl": 4863,
    "aryn": 4864,
    "asa": 4865,
    "asaki": 4866,
    "asant": 4867,
    "asar": 4868,
    "asca": 4869,
    "ascade": 4870,
    "ascal": 4871,
    "ascar": 4872,
    "ascist": 4873,
    "ascript": 4874,
    "ascular": 4875,
    "ascus": 4876,
    "asel": 4877,
    "aser": 4878,
    "asers": 4879,
    "ases": 4880,
    "asha": 4881,
    "ashed": 4882,
    "asher": 4883,
    "ashes": 4884,
    "ashi": 4885,
    "ashing": 4886,
    "ashion": 4887,
    "ashtra": 4888,
    "asi": 4889,
    "asin": 4890,
    "asing": 4891,
    "asio": 4892,
    "asion": 4893,
    "asionally": 4894,
    "asions": 4895,
    "asis": 4896,
    "asive": 4897,
    "aska": 4898,
    "asket": 4899,
    "asketball": 4900,
    "asking": 4901,
    "asks": 4902,
    "asley": 4903,
    "asm": 4904,
    "asma": 4905,
    "asms": 4906,
    "asonable": 4907,
    "asonic": 4908,
    "asonry": 4909,
    "asons": 4910,
    "asp": 4911,
    "aspberry": 4912,
    "asper": 4913,
    "aspers": 4914,
    "aspx": 4915,
    "assador": 4916,
    "assadors": 4917,
    "assault": 4918,
    "asse": 4919,
    "assed": 4920,
    "assemb": 4921,
    "assembled": 4922,
    "asser": 4923,
    "assert": 4924,
    "asses": 4925,
    "assets": 4926,
    "assetsadobe": 4927,
    "assi": 4928,
    "assian": 4929,
    "assic": 4930,
    "assies": 4931,
    "assin": 4932,
    "assing": 4933,
    "assion": 4934,
    "assis": 4935,
    "assisted": 4936,
    "assium": 4937,
    "assment": 4938,
    "asso": 4939,
    "assy": 4940,
    "asta": 4941,
    "aste": 4942,
    "asted": 4943,
    "aster": 4944,
    "astered": 4945,
    "astern": 4946,
    "asters": 4947,
    "astery": 4948,
    "astic": 4949,
    "astical": 4950,
    "astically": 4951,
    "astics": 4952,
    "asting": 4953,
    "aston": 4954,
    "astrous": 4955,
    "asts": 4956,
    "asty": 4957,
    "asu": 4958,
    "asure": 4959,
    "asured": 4960,
    "asures": 4961,
    "asuring": 4962,
    "asury": 4963,
    "asus": 4964,
    "atable": 4965,
    "ataka": 4966,
    "atal": 4967,
    "atalie": 4968,
    "atan": 4969,
    "atana": 4970,
    "atar": 4971,
    "atari": 4972,
    "atars": 4973,
    "atche": 4974,
    "atched": 4975,
    "atcher": 4976,
    "atches": 4977,
    "atchewan": 4978,
    "atching": 4979,
    "atech": 4980,
    "ateful": 4981,
    "ateg": 4982,
    "ategic": 4983,
    "ategor": 4984,
    "ategories": 4985,
    "ategory": 4986,
    "ategy": 4987,
    "atel": 4988,
    "atell": 4989,
    "atellite": 4990,
    "ately": 4991,
    "atem": 4992,
    "aten": 4993,
    "ateral": 4994,
    "aterasu": 4995,
    "atered": 4996,
    "aterial": 4997,
    "atern": 4998,
    "aternal": 4999,
    "aternity": 5000,
    "aters": 5001,
    "ateur": 5002,
    "ateurs": 5003,
    "atever": 5004,
    "atform": 5005,
    "atha": 5006,
    "atham": 5007,
    "athan": 5008,
    "athe": 5009,
    "athed": 5010,
    "athered": 5011,
    "atherine": 5012,
    "athering": 5013,
    "athetic": 5014,
    "athi": 5015,
    "athing": 5016,
    "athlon": 5017,
    "athom": 5018,
    "athon": 5019,
    "aths": 5020,
    "athy": 5021,
    "ati": 5022,
    "atial": 5023,
    "atibility": 5024,
    "atible": 5025,
    "atic": 5026,
    "atical": 5027,
    "atically": 5028,
    "atican": 5029,
    "atics": 5030,
    "atile": 5031,
    "atility": 5032,
    "atin": 5033,
    "atinum": 5034,
    "atio": 5035,
    "ationally": 5036,
    "atis": 5037,
    "atisf": 5038,
    "atism": 5039,
    "atively": 5040,
    "atives": 5041,
    "ativity": 5042,
    "atmeal": 5043,
    "ato": 5044,
    "atoes": 5045,
    "atography": 5046,
    "atom": 5047,
    "atomic": 5048,
    "aton": 5049,
    "atonin": 5050,
    "atoon": 5051,
    "atorial": 5052,
    "atories": 5053,
    "atorium": 5054,
    "ators": 5055,
    "atory": 5056,
    "atos": 5057,
    "atown": 5058,
    "atra": 5059,
    "atre": 5060,
    "atri": 5061,
    "atro": 5062,
    "atron": 5063,
    "atson": 5064,
    "atsu": 5065,
    "atsuki": 5066,
    "atta": 5067,
    "attacks": 5068,
    "atted": 5069,
    "atten": 5070,
    "atter": 5071,
    "attered": 5072,
    "attering": 5073,
    "atters": 5074,
    "attery": 5075,
    "atti": 5076,
    "attled": 5077,
    "atto": 5078,
    "atton": 5079,
    "attr": 5080,
    "atts": 5081,
    "atu": 5082,
    "atum": 5083,
    "atur": 5084,
    "atural": 5085,
    "aturally": 5086,
    "aturated": 5087,
    "aturation": 5088,
    "aturday": 5089,
    "aturdays": 5090,
    "atus": 5091,
    "atz": 5092,
    "auc": 5093,
    "aucas": 5094,
    "aucus": 5095,
    "aucuses": 5096,
    "auder": 5097,
    "audi": 5098,
    "auer": 5099,
    "auga": 5100,
    "augh": 5101,
    "aughed": 5102,
    "aughlin": 5103,
    "aughs": 5104,
    "aught": 5105,
    "aughter": 5106,
    "aughtered": 5107,
    "aughters": 5108,
    "aughty": 5109,
    "aukee": 5110,
    "aul": 5111,
    "auld": 5112,
    "auldron": 5113,
    "ault": 5114,
    "aults": 5115,
    "aum": 5116,
    "aun": 5117,
    "auna": 5118,
    "aunch": 5119,
    "aund": 5120,
    "aunder": 5121,
    "aundering": 5122,
    "aunders": 5123,
    "aunt": 5124,
    "aunted": 5125,
    "aunting": 5126,
    "auntlet": 5127,
    "auntlets": 5128,
    "aunts": 5129,
    "aur": 5130,
    "aura": 5131,
    "auri": 5132,
    "aurus": 5133,
    "aus": 5134,
    "ause": 5135,
    "ausible": 5136,
    "authored": 5137,
    "authorized": 5138,
    "authors": 5139,
    "autical": 5140,
    "aution": 5141,
    "autions": 5142,
    "automatic": 5143,
    "auts": 5144,
    "aux": 5145,
    "ava": 5146,
    "avage": 5147,
    "aval": 5148,
    "avan": 5149,
    "avanaugh": 5150,
    "avascript": 5151,
    "ave": 5152,
    "aved": 5153,
    "avement": 5154,
    "aven": 5155,
    "aver": 5156,
    "avering": 5157,
    "avers": 5158,
    "avery": 5159,
    "aves": 5160,
    "avez": 5161,
    "avi": 5162,
    "avia": 5163,
    "avid": 5164,
    "avier": 5165,
    "avin": 5166,
    "aving": 5167,
    "avior": 5168,
    "aviour": 5169,
    "avis": 5170,
    "avor": 5171,
    "avorable": 5172,
    "avored": 5173,
    "avorite": 5174,
    "avour": 5175,
    "avy": 5176,
    "awa": 5177,
    "awaited": 5178,
    "awan": 5179,
    "awar": 5180,
    "aware": 5181,
    "awareness": 5182,
    "awaru": 5183,
    "awatts": 5184,
    "away": 5185,
    "aways": 5186,
    "awed": 5187,
    "awei": 5188,
    "awi": 5189,
    "awk": 5190,
    "awks": 5191,
    "awn": 5192,
    "aws": 5193,
    "axe": 5194,
    "axies": 5195,
    "axis": 5196,
    "axter": 5197,
    "axy": 5198,
    "aya": 5199,
    "ayan": 5200,
    "aye": 5201,
    "ayed": 5202,
    "ayer": 5203,
    "ayers": 5204,
    "ayette": 5205,
    "aying": 5206,
    "aylor": 5207,
    "ayn": 5208,
    "ayne": 5209,
    "ays": 5210,
    "ayson": 5211,
    "aza": 5212,
    "azaar": 5213,
    "azaki": 5214,
    "azar": 5215,
    "azard": 5216,
    "aze": 5217,
    "azed": 5218,
    "azeera": 5219,
    "azel": 5220,
    "azer": 5221,
    "azes": 5222,
    "azi": 5223,
    "azine": 5224,
    "azines": 5225,
    "azing": 5226,
    "azo": 5227,
    "azon": 5228,
    "azor": 5229,
    "azy": 5230,
    "azz": 5231,
    "bable": 5232,
    "bably": 5233,
    "bach": 5234,
    "backed": 5235,
    "backer": 5236,
    "backs": 5237,
    "bag": 5238,
    "bage": 5239,
    "bags": 5240,
    "balanced": 5241,
    "balls": 5242,
    "bands": 5243,
    "bane": 5244,
    "banks": 5245,
    "bara": 5246,
    "bard": 5247,
    "bare": 5248,
    "bars": 5249,
    "bart": 5250,
    "bash": 5251,
    "basketball": 5252,
    "bass": 5253,
    "batch": 5254,
    "bath": 5255,
    "bats": 5256,
    "baugh": 5257,
    "baum": 5258,
    "bda": 5259,
    "beam": 5260,
    "bean": 5261,
    "beans": 5262,
    "beard": 5263,
    "bearing": 5264,
    "becca": 5265,
    "becue": 5266,
    "bedroom": 5267,
    "been": 5268,
    "bees": 5269,
    "behavior": 5270,
    "beit": 5271,
    "bek": 5272,
    "belt": 5273,
    "bender": 5274,
    "bending": 5275,
    "benefit": 5276,
    "bent": 5277,
    "bered": 5278,
    "berg": 5279,
    "berger": 5280,
    "berman": 5281,
    "bernatorial": 5282,
    "berra": 5283,
    "berries": 5284,
    "bers": 5285,
    "bert": 5286,
    "berto": 5287,
    "berus": 5288,
    "bery": 5289,
    "bes": 5290,
    "bestos": 5291,
    "bett": 5292,
    "bh": 5293,
    "bia": 5294,
    "bial": 5295,
    "bian": 5296,
    "bians": 5297,
    "biased": 5298,
    "bid": 5299,
    "bidden": 5300,
    "bie": 5301,
    "bies": 5302,
    "bike": 5303,
    "billion": 5304,
    "bilt": 5305,
    "bin": 5306,
    "binary": 5307,
    "binding": 5308,
    "bing": 5309,
    "biology": 5310,
    "birds": 5311,
    "bis": 5312,
    "bish": 5313,
    "bishop": 5314,
    "bite": 5315,
    "bitious": 5316,
    "bits": 5317,
    "biz": 5318,
    "bj": 5319,
    "blance": 5320,
    "blank": 5321,
    "blast": 5322,
    "bleacher": 5323,
    "bled": 5324,
    "bledon": 5325,
    "blem": 5326,
    "blems": 5327,
    "bler": 5328,
    "blers": 5329,
    "bles": 5330,
    "bley": 5331,
    "blind": 5332,
    "bling": 5333,
    "blocking": 5334,
    "blogs": 5335,
    "blogspot": 5336,
    "blooded": 5337,
    "blow": 5338,
    "blown": 5339,
    "bly": 5340,
    "bnb": 5341,
    "boa": 5342,
    "boarding": 5343,
    "boards": 5344,
    "boat": 5345,
    "boats": 5346,
    "bodied": 5347,
    "bol": 5348,
    "bold": 5349,
    "bole": 5350,
    "bolt": 5351,
    "bones": 5352,
    "bons": 5353,
    "bool": 5354,
    "bor": 5355,
    "borg": 5356,
    "borgh": 5357,
    "borne": 5358,
    "boro": 5359,
    "borough": 5360,
    "bors": 5361,
    "bos": 5362,
    "bots": 5363,
    "bour": 5364,
    "bourg": 5365,
    "bourne": 5366,
    "bowl": 5367,
    "bows": 5368,
    "boxes": 5369,
    "boxing": 5370,
    "boys": 5371,
    "bps": 5372,
    "brace": 5373,
    "brainer": 5374,
    "bral": 5375,
    "brance": 5376,
    "branded": 5377,
    "braska": 5378,
    "brate": 5379,
    "brates": 5380,
    "bread": 5381,
    "breaker": 5382,
    "breakers": 5383,
    "breaks": 5384,
    "bred": 5385,
    "breeding": 5386,
    "brid": 5387,
    "brids": 5388,
    "bringer": 5389,
    "bringing": 5390,
    "bris": 5391,
    "broken": 5392,
    "brush": 5393,
    "bryce": 5394,
    "bsite": 5395,
    "bsp": 5396,
    "btn": 5397,
    "bub": 5398,
    "buck": 5399,
    "bucks": 5400,
    "budget": 5401,
    "buf": 5402,
    "bugs": 5403,
    "builders": 5404,
    "bum": 5405,
    "buquerque": 5406,
    "burg": 5407,
    "burgh": 5408,
    "burning": 5409,
    "burse": 5410,
    "burst": 5411,
    "bury": 5412,
    "buster": 5413,
    "busters": 5414,
    "butt": 5415,
    "bye": 5416,
    "byn": 5417,
    "bys": 5418,
    "byss": 5419,
    "byter": 5420,
    "cade": 5421,
    "cair": 5422,
    "cake": 5423,
    "cakes": 5424,
    "cale": 5425,
    "caliber": 5426,
    "called": 5427,
    "campus": 5428,
    "cancer": 5429,
    "cano": 5430,
    "canon": 5431,
    "capacity": 5432,
    "cape": 5433,
    "capitalist": 5434,
    "caps": 5435,
    "carb": 5436,
    "carbon": 5437,
    "cards": 5438,
    "carry": 5439,
    "cars": 5440,
    "cases": 5441,
    "caster": 5442,
    "casters": 5443,
    "casting": 5444,
    "castle": 5445,
    "casts": 5446,
    "catch": 5447,
    "catching": 5448,
    "catentry": 5449,
    "cation": 5450,
    "cats": 5451,
    "cca": 5452,
    "ccess": 5453,
    "cci": 5454,
    "ccoli": 5455,
    "ccording": 5456,
    "cdn": 5457,
    "cean": 5458,
    "ceans": 5459,
    "ced": 5460,
    "cedented": 5461,
    "cedes": 5462,
    "ceed": 5463,
    "ceivable": 5464,
    "ceive": 5465,
    "ceived": 5466,
    "ceiver": 5467,
    "cel": 5468,
    "celer": 5469,
    "cellaneous": 5470,
    "cellence": 5471,
    "cellent": 5472,
    "cells": 5473,
    "celona": 5474,
    "cember": 5475,
    "cemic": 5476,
    "cence": 5477,
    "cend": 5478,
    "cens": 5479,
    "centered": 5480,
    "centric": 5481,
    "century": 5482,
    "cephal": 5483,
    "ception": 5484,
    "ceptions": 5485,
    "ceptive": 5486,
    "ceptor": 5487,
    "cer": 5488,
    "cern": 5489,
    "cerned": 5490,
    "cerning": 5491,
    "cerpt": 5492,
    "cers": 5493,
    "cery": 5494,
    "ces": 5495,
    "cess": 5496,
    "cession": 5497,
    "cessive": 5498,
    "cest": 5499,
    "cester": 5500,
    "cffff": 5501,
    "cffffcc": 5502,
    "cfg": 5503,
    "cgi": 5504,
    "chains": 5505,
    "chairs": 5506,
    "chal": 5507,
    "cham": 5508,
    "channelavailability": 5509,
    "chant": 5510,
    "chanted": 5511,
    "chard": 5512,
    "charged": 5513,
    "charging": 5514,
    "cheat": 5515,
    "checked": 5516,
    "checking": 5517,
    "checks": 5518,
    "ched": 5519,
    "chedel": 5520,
    "chell": 5521,
    "chemical": 5522,
    "chemist": 5523,
    "chemy": 5524,
    "chen": 5525,
    "chenko": 5526,
    "chens": 5527,
    "cheon": 5528,
    "cher": 5529,
    "chers": 5530,
    "chery": 5531,
    "ches": 5532,
    "chester": 5533,
    "chet": 5534,
    "chev": 5535,
    "chi": 5536,
    "chid": 5537,
    "chie": 5538,
    "chieve": 5539,
    "chin": 5540,
    "ching": 5541,
    "chini": 5542,
    "chio": 5543,
    "chlor": 5544,
    "chn": 5545,
    "chnology": 5546,
    "choes": 5547,
    "chool": 5548,
    "chrom": 5549,
    "chrome": 5550,
    "chron": 5551,
    "cht": 5552,
    "chu": 5553,
    "chuk": 5554,
    "chwitz": 5555,
    "chy": 5556,
    "cial": 5557,
    "cially": 5558,
    "ciating": 5559,
    "ciation": 5560,
    "cible": 5561,
    "cience": 5562,
    "cient": 5563,
    "cientious": 5564,
    "cients": 5565,
    "cies": 5566,
    "cific": 5567,
    "cig": 5568,
    "cigarette": 5569,
    "cigarettes": 5570,
    "cil": 5571,
    "cill": 5572,
    "cin": 5573,
    "cing": 5574,
    "cious": 5575,
    "cipl": 5576,
    "cipled": 5577,
    "ciples": 5578,
    "ciplinary": 5579,
    "cipline": 5580,
    "circle": 5581,
    "cise": 5582,
    "cised": 5583,
    "cision": 5584,
    "cit": 5585,
    "citizens": 5586,
    "cium": 5587,
    "cius": 5588,
    "ck": 5589,
    "cker": 5590,
    "cki": 5591,
    "cking": 5592,
    "cknow": 5593,
    "cknowled": 5594,
    "cko": 5595,
    "cks": 5596,
    "clad": 5597,
    "claimed": 5598,
    "claimer": 5599,
    "clair": 5600,
    "clamation": 5601,
    "classes": 5602,
    "clave": 5603,
    "claw": 5604,
    "cled": 5605,
    "cler": 5606,
    "clerosis": 5607,
    "cles": 5608,
    "cli": 5609,
    "cliffe": 5610,
    "cling": 5611,
    "clinical": 5612,
    "clip": 5613,
    "clips": 5614,
    "clipse": 5615,
    "clone": 5616,
    "cloneembedreportprint": 5617,
    "closed": 5618,
    "cloth": 5619,
    "clude": 5620,
    "cluded": 5621,
    "cludes": 5622,
    "cluding": 5623,
    "clusion": 5624,
    "clusions": 5625,
    "clusive": 5626,
    "clusively": 5627,
    "cmp": 5628,
    "cms": 5629,
    "coal": 5630,
    "coat": 5631,
    "cock": 5632,
    "coded": 5633,
    "codes": 5634,
    "coe": 5635,
    "cohol": 5636,
    "coins": 5637,
    "collar": 5638,
    "colm": 5639,
    "colo": 5640,
    "colonial": 5641,
    "colored": 5642,
    "colour": 5643,
    "combe": 5644,
    "comed": 5645,
    "comes": 5646,
    "comfort": 5647,
    "comings": 5648,
    "commit": 5649,
    "committee": 5650,
    "communication": 5651,
    "communications": 5652,
    "compatible": 5653,
    "competitive": 5654,
    "completely": 5655,
    "complex": 5656,
    "compliance": 5657,
    "concept": 5658,
    "concert": 5659,
    "conduct": 5660,
    "cone": 5661,
    "conference": 5662,
    "confidence": 5663,
    "confirmed": 5664,
    "coni": 5665,
    "connected": 5666,
    "conom": 5667,
    "conscious": 5668,
    "conserv": 5669,
    "conservancy": 5670,
    "constitutional": 5671,
    "consuming": 5672,
    "contained": 5673,
    "containing": 5674,
    "continental": 5675,
    "controlled": 5676,
    "conv": 5677,
    "cooked": 5678,
    "cookie": 5679,
    "coon": 5680,
    "coord": 5681,
    "corruption": 5682,
    "cosystem": 5683,
    "cot": 5684,
    "cott": 5685,
    "covered": 5686,
    "cox": 5687,
    "cpp": 5688,
    "crafted": 5689,
    "crazy": 5690,
    "cream": 5691,
    "creation": 5692,
    "creator": 5693,
    "creen": 5694,
    "crete": 5695,
    "cribed": 5696,
    "crim": 5697,
    "criminal": 5698,
    "cript": 5699,
    "criptions": 5700,
    "croft": 5701,
    "crop": 5702,
    "crow": 5703,
    "csv": 5704,
    "ctic": 5705,
    "ctica": 5706,
    "ction": 5707,
    "ctions": 5708,
    "ctive": 5709,
    "ctl": 5710,
    "ctor": 5711,
    "ctors": 5712,
    "ctory": 5713,
    "ctr": 5714,
    "ctuary": 5715,
    "cture": 5716,
    "ctx": 5717,
    "cue": 5718,
    "cul": 5719,
    "cular": 5720,
    "culated": 5721,
    "culation": 5722,
    "cule": 5723,
    "cules": 5724,
    "culosis": 5725,
    "cult": 5726,
    "cultural": 5727,
    "culture": 5728,
    "culus": 5729,
    "cum": 5730,
    "cup": 5731,
    "currency": 5732,
    "cus": 5733,
    "cussion": 5734,
    "cuts": 5735,
    "cutting": 5736,
    "cycl": 5737,
    "cycle": 5738,
    "cycles": 5739,
    "cyclop": 5740,
    "cyclopedia": 5741,
    "cyl": 5742,
    "cz": 5743,
    "c\u00e3\u00a9": 5744,
    "dain": 5745,
    "dal": 5746,
    "dale": 5747,
    "danger": 5748,
    "dated": 5749,
    "dates": 5750,
    "dating": 5751,
    "daughter": 5752,
    "dayname": 5753,
    "dden": 5754,
    "dding": 5755,
    "dds": 5756,
    "deals": 5757,
    "debian": 5758,
    "deck": 5759,
    "ded": 5760,
    "deen": 5761,
    "define": 5762,
    "defined": 5763,
    "deg": 5764,
    "degree": 5765,
    "delay": 5766,
    "democracy": 5767,
    "density": 5768,
    "depend": 5769,
    "dependent": 5770,
    "derived": 5771,
    "described": 5772,
    "designed": 5773,
    "destruct": 5774,
    "detail": 5775,
    "determination": 5776,
    "developed": 5777,
    "devices": 5778,
    "dfx": 5779,
    "diagn": 5780,
    "dict": 5781,
    "didn": 5782,
    "dies": 5783,
    "digit": 5784,
    "digy": 5785,
    "dimension": 5786,
    "dimensional": 5787,
    "din": 5788,
    "dinand": 5789,
    "ding": 5790,
    "directed": 5791,
    "direction": 5792,
    "dirty": 5793,
    "disabled": 5794,
    "disciplinary": 5795,
    "discrimination": 5796,
    "displaytext": 5797,
    "division": 5798,
    "dll": 5799,
    "docker": 5800,
    "docs": 5801,
    "doctoral": 5802,
    "documented": 5803,
    "doesn": 5804,
    "dogs": 5805,
    "doi": 5806,
    "doing": 5807,
    "dollar": 5808,
    "dominated": 5809,
    "doms": 5810,
    "door": 5811,
    "doors": 5812,
    "dor": 5813,
    "dose": 5814,
    "dot": 5815,
    "downs": 5816,
    "dozen": 5817,
    "dq": 5818,
    "dra": 5819,
    "drawn": 5820,
    "dress": 5821,
    "driven": 5822,
    "drivers": 5823,
    "driving": 5824,
    "drm": 5825,
    "dropping": 5826,
    "drops": 5827,
    "dry": 5828,
    "duc": 5829,
    "ducers": 5830,
    "duct": 5831,
    "duction": 5832,
    "duino": 5833,
    "dule": 5834,
    "dullah": 5835,
    "dump": 5836,
    "duty": 5837,
    "dy": 5838,
    "dyl": 5839,
    "dylib": 5840,
    "ead": 5841,
    "eah": 5842,
    "eal": 5843,
    "ealing": 5844,
    "ealous": 5845,
    "eals": 5846,
    "ean": 5847,
    "eanor": 5848,
    "earable": 5849,
    "earance": 5850,
    "earances": 5851,
    "earch": 5852,
    "earcher": 5853,
    "earchers": 5854,
    "eared": 5855,
    "earing": 5856,
    "earned": 5857,
    "ears": 5858,
    "eas": 5859,
    "eating": 5860,
    "eatured": 5861,
    "eatures": 5862,
    "eaturing": 5863,
    "ebin": 5864,
    "ebook": 5865,
    "ebra": 5866,
    "ebted": 5867,
    "ebus": 5868,
    "ecake": 5869,
    "ecast": 5870,
    "ecause": 5871,
    "eches": 5872,
    "echo": 5873,
    "ecided": 5874,
    "eco": 5875,
    "ectar": 5876,
    "ected": 5877,
    "ective": 5878,
    "ectomy": 5879,
    "ector": 5880,
    "ecycle": 5881,
    "edin": 5882,
    "eda": 5883,
    "edar": 5884,
    "eday": 5885,
    "edd": 5886,
    "edded": 5887,
    "eddy": 5888,
    "ede": 5889,
    "eded": 5890,
    "eden": 5891,
    "eder": 5892,
    "ederal": 5893,
    "ederation": 5894,
    "edes": 5895,
    "edged": 5896,
    "edi": 5897,
    "edia": 5898,
    "edience": 5899,
    "edient": 5900,
    "eding": 5901,
    "edition": 5902,
    "edly": 5903,
    "edo": 5904,
    "edom": 5905,
    "eds": 5906,
    "edu": 5907,
    "educated": 5908,
    "edy": 5909,
    "eeds": 5910,
    "eeks": 5911,
    "eele": 5912,
    "eely": 5913,
    "eem": 5914,
    "een": 5915,
    "eenth": 5916,
    "eeper": 5917,
    "eer": 5918,
    "eering": 5919,
    "eers": 5920,
    "ees": 5921,
    "eez": 5922,
    "efe": 5923,
    "efeated": 5924,
    "efer": 5925,
    "effic": 5926,
    "efficiency": 5927,
    "efficient": 5928,
    "efficients": 5929,
    "efined": 5930,
    "eful": 5931,
    "efully": 5932,
    "egal": 5933,
    "eger": 5934,
    "egg": 5935,
    "egu": 5936,
    "ei": 5937,
    "ek": 5938,
    "eka": 5939,
    "eker": 5940,
    "eki": 5941,
    "eking": 5942,
    "eks": 5943,
    "ela": 5944,
    "elaide": 5945,
    "eland": 5946,
    "elcome": 5947,
    "elected": 5948,
    "election": 5949,
    "eled": 5950,
    "eless": 5951,
    "elfare": 5952,
    "elfth": 5953,
    "eli": 5954,
    "elia": 5955,
    "elight": 5956,
    "eligible": 5957,
    "elin": 5958,
    "eline": 5959,
    "elines": 5960,
    "eling": 5961,
    "elist": 5962,
    "ella": 5963,
    "ellar": 5964,
    "ellation": 5965,
    "elle": 5966,
    "ellect": 5967,
    "ellectual": 5968,
    "elled": 5969,
    "ellen": 5970,
    "eller": 5971,
    "ellery": 5972,
    "elli": 5973,
    "ellig": 5974,
    "elligence": 5975,
    "elligent": 5976,
    "elling": 5977,
    "ello": 5978,
    "ellow": 5979,
    "ells": 5980,
    "elly": 5981,
    "elman": 5982,
    "eln": 5983,
    "elo": 5984,
    "elong": 5985,
    "elope": 5986,
    "elsen": 5987,
    "elsh": 5988,
    "elsius": 5989,
    "elson": 5990,
    "elt": 5991,
    "elta": 5992,
    "elve": 5993,
    "elvet": 5994,
    "emade": 5995,
    "emaker": 5996,
    "emale": 5997,
    "eman": 5998,
    "emark": 5999,
    "emate": 6000,
    "embed": 6001,
    "embedreportprint": 6002,
    "eme": 6003,
    "emed": 6004,
    "emen": 6005,
    "ements": 6006,
    "emet": 6007,
    "emetery": 6008,
    "emi": 6009,
    "emia": 6010,
    "emic": 6011,
    "emies": 6012,
    "emin": 6013,
    "eming": 6014,
    "emis": 6015,
    "emn": 6016,
    "emo": 6017,
    "emon": 6018,
    "emonic": 6019,
    "emonium": 6020,
    "emort": 6021,
    "emouth": 6022,
    "emphasis": 6023,
    "empl": 6024,
    "employed": 6025,
    "employment": 6026,
    "emporary": 6027,
    "empt": 6028,
    "emption": 6029,
    "emy": 6030,
    "ename": 6031,
    "enance": 6032,
    "enaries": 6033,
    "enario": 6034,
    "enary": 6035,
    "enberg": 6036,
    "enburg": 6037,
    "enced": 6038,
    "encer": 6039,
    "encers": 6040,
    "ences": 6041,
    "ench": 6042,
    "encia": 6043,
    "encies": 6044,
    "encing": 6045,
    "encrypted": 6046,
    "enda": 6047,
    "endale": 6048,
    "endant": 6049,
    "endants": 6050,
    "endar": 6051,
    "endars": 6052,
    "endas": 6053,
    "ende": 6054,
    "ender": 6055,
    "endered": 6056,
    "enders": 6057,
    "endez": 6058,
    "endi": 6059,
    "endiary": 6060,
    "endif": 6061,
    "ending": 6062,
    "endish": 6063,
    "endium": 6064,
    "endix": 6065,
    "endment": 6066,
    "endo": 6067,
    "endon": 6068,
    "endor": 6069,
    "endra": 6070,
    "ends": 6071,
    "endum": 6072,
    "ened": 6073,
    "eneg": 6074,
    "enegger": 6075,
    "enei": 6076,
    "enemy": 6077,
    "ener": 6078,
    "eners": 6079,
    "enery": 6080,
    "enes": 6081,
    "eness": 6082,
    "enez": 6083,
    "enezuel": 6084,
    "enf": 6085,
    "enforcement": 6086,
    "enfranch": 6087,
    "enge": 6088,
    "engeance": 6089,
    "enged": 6090,
    "enger": 6091,
    "engers": 6092,
    "enges": 6093,
    "engineering": 6094,
    "engu": 6095,
    "enhagen": 6096,
    "eni": 6097,
    "enic": 6098,
    "ening": 6099,
    "enium": 6100,
    "enko": 6101,
    "enment": 6102,
    "enna": 6103,
    "enne": 6104,
    "ennes": 6105,
    "ennett": 6106,
    "ennial": 6107,
    "ennis": 6108,
    "enny": 6109,
    "eno": 6110,
    "enos": 6111,
    "ensable": 6112,
    "ensation": 6113,
    "ensed": 6114,
    "ensen": 6115,
    "enser": 6116,
    "enses": 6117,
    "ensible": 6118,
    "ensibly": 6119,
    "ensical": 6120,
    "ensing": 6121,
    "ension": 6122,
    "ensional": 6123,
    "ensions": 6124,
    "ensis": 6125,
    "ensitive": 6126,
    "ensitivity": 6127,
    "ensity": 6128,
    "ensive": 6129,
    "enson": 6130,
    "ensor": 6131,
    "enstein": 6132,
    "ensual": 6133,
    "ensus": 6134,
    "enta": 6135,
    "ental": 6136,
    "entanyl": 6137,
    "entary": 6138,
    "ente": 6139,
    "ented": 6140,
    "enth": 6141,
    "enthal": 6142,
    "ential": 6143,
    "entially": 6144,
    "entials": 6145,
    "entimes": 6146,
    "entin": 6147,
    "enting": 6148,
    "entious": 6149,
    "entle": 6150,
    "ently": 6151,
    "ento": 6152,
    "enton": 6153,
    "entric": 6154,
    "enture": 6155,
    "enty": 6156,
    "enum": 6157,
    "env": 6158,
    "eny": 6159,
    "enz": 6160,
    "enza": 6161,
    "enzie": 6162,
    "eon": 6163,
    "eor": 6164,
    "eous": 6165,
    "epad": 6166,
    "epend": 6167,
    "ependence": 6168,
    "ependent": 6169,
    "eper": 6170,
    "eph": 6171,
    "eping": 6172,
    "eport": 6173,
    "eps": 6174,
    "ept": 6175,
    "eq": 6176,
    "equal": 6177,
    "equality": 6178,
    "equipped": 6179,
    "erala": 6180,
    "erald": 6181,
    "erate": 6182,
    "erb": 6183,
    "ercise": 6184,
    "erd": 6185,
    "ered": 6186,
    "eredith": 6187,
    "eree": 6188,
    "erek": 6189,
    "erella": 6190,
    "eren": 6191,
    "erence": 6192,
    "erences": 6193,
    "erenn": 6194,
    "erent": 6195,
    "erential": 6196,
    "ereo": 6197,
    "erer": 6198,
    "erers": 6199,
    "erest": 6200,
    "eret": 6201,
    "erey": 6202,
    "ergic": 6203,
    "ergus": 6204,
    "erguson": 6205,
    "ergy": 6206,
    "eri": 6207,
    "eria": 6208,
    "erial": 6209,
    "erick": 6210,
    "erie": 6211,
    "eries": 6212,
    "ering": 6213,
    "erion": 6214,
    "erity": 6215,
    "erk": 6216,
    "erker": 6217,
    "erm": 6218,
    "erman": 6219,
    "ermanent": 6220,
    "ermott": 6221,
    "ernal": 6222,
    "ername": 6223,
    "ernand": 6224,
    "ernandez": 6225,
    "ernaut": 6226,
    "ernel": 6227,
    "ernels": 6228,
    "erness": 6229,
    "erning": 6230,
    "erno": 6231,
    "eros": 6232,
    "erous": 6233,
    "err": 6234,
    "erred": 6235,
    "errilla": 6236,
    "errors": 6237,
    "erry": 6238,
    "ersed": 6239,
    "ersen": 6240,
    "ership": 6241,
    "ersion": 6242,
    "ersive": 6243,
    "ertain": 6244,
    "ertation": 6245,
    "ertility": 6246,
    "erto": 6247,
    "ertodd": 6248,
    "erton": 6249,
    "erv": 6250,
    "erva": 6251,
    "ervation": 6252,
    "ervative": 6253,
    "ervatives": 6254,
    "erve": 6255,
    "erved": 6256,
    "erver": 6257,
    "erves": 6258,
    "erville": 6259,
    "erving": 6260,
    "eryl": 6261,
    "esame": 6262,
    "esan": 6263,
    "esar": 6264,
    "escal": 6265,
    "escap": 6266,
    "escape": 6267,
    "escent": 6268,
    "escription": 6269,
    "esi": 6270,
    "esian": 6271,
    "esides": 6272,
    "esis": 6273,
    "esity": 6274,
    "esley": 6275,
    "esm": 6276,
    "esome": 6277,
    "eson": 6278,
    "esp": 6279,
    "espie": 6280,
    "esque": 6281,
    "essa": 6282,
    "essage": 6283,
    "esse": 6284,
    "essed": 6285,
    "essee": 6286,
    "essel": 6287,
    "essen": 6288,
    "essential": 6289,
    "essert": 6290,
    "esses": 6291,
    "essim": 6292,
    "essing": 6293,
    "essional": 6294,
    "essions": 6295,
    "essler": 6296,
    "essment": 6297,
    "esson": 6298,
    "essor": 6299,
    "essors": 6300,
    "esta": 6301,
    "establish": 6302,
    "established": 6303,
    "establishment": 6304,
    "estamp": 6305,
    "estate": 6306,
    "estation": 6307,
    "este": 6308,
    "estead": 6309,
    "ested": 6310,
    "esteem": 6311,
    "ester": 6312,
    "estern": 6313,
    "esters": 6314,
    "esthes": 6315,
    "esthesia": 6316,
    "esthetic": 6317,
    "estial": 6318,
    "estic": 6319,
    "estinal": 6320,
    "estine": 6321,
    "esting": 6322,
    "estival": 6323,
    "eston": 6324,
    "estone": 6325,
    "estones": 6326,
    "estro": 6327,
    "ests": 6328,
    "esty": 6329,
    "estyle": 6330,
    "estyles": 6331,
    "esville": 6332,
    "esy": 6333,
    "etary": 6334,
    "etc": 6335,
    "etch": 6336,
    "etchup": 6337,
    "ete": 6338,
    "eteen": 6339,
    "eteenth": 6340,
    "eter": 6341,
    "eteria": 6342,
    "etermin": 6343,
    "etermination": 6344,
    "etermined": 6345,
    "eters": 6346,
    "ethe": 6347,
    "etheless": 6348,
    "ether": 6349,
    "etheus": 6350,
    "ethical": 6351,
    "ethnic": 6352,
    "ethy": 6353,
    "ethyl": 6354,
    "ethyst": 6355,
    "etic": 6356,
    "etically": 6357,
    "etics": 6358,
    "eties": 6359,
    "etime": 6360,
    "etimes": 6361,
    "eting": 6362,
    "etition": 6363,
    "etitive": 6364,
    "eto": 6365,
    "eton": 6366,
    "etooth": 6367,
    "etr": 6368,
    "etric": 6369,
    "etrical": 6370,
    "etry": 6371,
    "etsk": 6372,
    "etsu": 6373,
    "etsy": 6374,
    "ett": 6375,
    "etta": 6376,
    "ette": 6377,
    "ettel": 6378,
    "etter": 6379,
    "ettes": 6380,
    "etti": 6381,
    "etting": 6382,
    "ettings": 6383,
    "ettle": 6384,
    "ettlement": 6385,
    "etts": 6386,
    "etus": 6387,
    "ety": 6388,
    "etz": 6389,
    "eur": 6390,
    "eus": 6391,
    "eval": 6392,
    "evaluate": 6393,
    "eve": 6394,
    "everal": 6395,
    "evin": 6396,
    "eware": 6397,
    "ewater": 6398,
    "eway": 6399,
    "eways": 6400,
    "ewitness": 6401,
    "ework": 6402,
    "eworks": 6403,
    "eworld": 6404,
    "eworthy": 6405,
    "ews": 6406,
    "ewski": 6407,
    "examination": 6408,
    "excluding": 6409,
    "exclusive": 6410,
    "exe": 6411,
    "execute": 6412,
    "exempt": 6413,
    "exist": 6414,
    "existence": 6415,
    "existent": 6416,
    "existing": 6417,
    "expected": 6418,
    "expensive": 6419,
    "expr": 6420,
    "expression": 6421,
    "externalactioncode": 6422,
    "extremely": 6423,
    "eyed": 6424,
    "eyes": 6425,
    "ez": 6426,
    "ezvous": 6427,
    "faced": 6428,
    "faces": 6429,
    "facing": 6430,
    "facts": 6431,
    "failed": 6432,
    "falls": 6433,
    "fam": 6434,
    "famous": 6435,
    "fare": 6436,
    "farious": 6437,
    "fascist": 6438,
    "fashion": 6439,
    "fashioned": 6440,
    "feat": 6441,
    "fect": 6442,
    "fecture": 6443,
    "fee": 6444,
    "feeding": 6445,
    "feet": 6446,
    "feld": 6447,
    "fell": 6448,
    "felt": 6449,
    "femin": 6450,
    "fen": 6451,
    "ference": 6452,
    "ferred": 6453,
    "fet": 6454,
    "fetched": 6455,
    "ffe": 6456,
    "ffect": 6457,
    "ffee": 6458,
    "ffen": 6459,
    "ffic": 6460,
    "fficiency": 6461,
    "fficient": 6462,
    "ffield": 6463,
    "ffiti": 6464,
    "fiction": 6465,
    "fields": 6466,
    "fifth": 6467,
    "fighter": 6468,
    "fighters": 6469,
    "fights": 6470,
    "figured": 6471,
    "filled": 6472,
    "finals": 6473,
    "finder": 6474,
    "fing": 6475,
    "finger": 6476,
    "finished": 6477,
    "fired": 6478,
    "fires": 6479,
    "fits": 6480,
    "fitted": 6481,
    "fitting": 6482,
    "fixes": 6483,
    "flake": 6484,
    "flame": 6485,
    "flat": 6486,
    "flation": 6487,
    "fledged": 6488,
    "fleet": 6489,
    "flex": 6490,
    "flies": 6491,
    "flix": 6492,
    "floor": 6493,
    "flower": 6494,
    "flows": 6495,
    "flu": 6496,
    "flush": 6497,
    "fman": 6498,
    "focused": 6499,
    "fol": 6500,
    "fold": 6501,
    "folio": 6502,
    "folios": 6503,
    "folk": 6504,
    "foo": 6505,
    "footed": 6506,
    "forced": 6507,
    "forcement": 6508,
    "forcer": 6509,
    "forces": 6510,
    "forcing": 6511,
    "foreseen": 6512,
    "forestation": 6513,
    "fork": 6514,
    "formance": 6515,
    "formed": 6516,
    "formerly": 6517,
    "forming": 6518,
    "forms": 6519,
    "fortable": 6520,
    "forth": 6521,
    "forts": 6522,
    "fortune": 6523,
    "forum": 6524,
    "forums": 6525,
    "foundation": 6526,
    "founded": 6527,
    "founder": 6528,
    "foundland": 6529,
    "fps": 6530,
    "frac": 6531,
    "framework": 6532,
    "frequency": 6533,
    "frey": 6534,
    "fried": 6535,
    "friendly": 6536,
    "frog": 6537,
    "fruit": 6538,
    "ften": 6539,
    "fter": 6540,
    "fters": 6541,
    "ftime": 6542,
    "fts": 6543,
    "fty": 6544,
    "fully": 6545,
    "fulness": 6546,
    "func": 6547,
    "functional": 6548,
    "funded": 6549,
    "funding": 6550,
    "fur": 6551,
    "furt": 6552,
    "fusc": 6553,
    "gaard": 6554,
    "gado": 6555,
    "gae": 6556,
    "gage": 6557,
    "gain": 6558,
    "galitarian": 6559,
    "gang": 6560,
    "gans": 6561,
    "gap": 6562,
    "gard": 6563,
    "gars": 6564,
    "gart": 6565,
    "gat": 6566,
    "gdala": 6567,
    "geant": 6568,
    "gebra": 6569,
    "ged": 6570,
    "gee": 6571,
    "geist": 6572,
    "gel": 6573,
    "gem": 6574,
    "gement": 6575,
    "gements": 6576,
    "gemony": 6577,
    "gence": 6578,
    "gencies": 6579,
    "gency": 6580,
    "generated": 6581,
    "generation": 6582,
    "genic": 6583,
    "genre": 6584,
    "gent": 6585,
    "gently": 6586,
    "geon": 6587,
    "geoning": 6588,
    "geons": 6589,
    "gerald": 6590,
    "gered": 6591,
    "geries": 6592,
    "gers": 6593,
    "gery": 6594,
    "gest": 6595,
    "getic": 6596,
    "gets": 6597,
    "gettable": 6598,
    "gew": 6599,
    "gewater": 6600,
    "gex": 6601,
    "gey": 6602,
    "gged": 6603,
    "gger": 6604,
    "ggie": 6605,
    "ggies": 6606,
    "gging": 6607,
    "ggle": 6608,
    "ggles": 6609,
    "ggy": 6610,
    "gha": 6611,
    "ghai": 6612,
    "ghan": 6613,
    "ghazi": 6614,
    "gian": 6615,
    "gie": 6616,
    "giene": 6617,
    "gif": 6618,
    "gin": 6619,
    "ging": 6620,
    "gins": 6621,
    "ginx": 6622,
    "gio": 6623,
    "girlfriend": 6624,
    "git": 6625,
    "github": 6626,
    "glas": 6627,
    "glers": 6628,
    "gling": 6629,
    "glomer": 6630,
    "gly": 6631,
    "gmail": 6632,
    "gment": 6633,
    "gments": 6634,
    "gnu": 6635,
    "gob": 6636,
    "goers": 6637,
    "gom": 6638,
    "gomery": 6639,
    "gon": 6640,
    "gone": 6641,
    "goo": 6642,
    "gor": 6643,
    "gorith": 6644,
    "gorithm": 6645,
    "gotten": 6646,
    "governmental": 6647,
    "govtrack": 6648,
    "gow": 6649,
    "gradation": 6650,
    "graded": 6651,
    "grades": 6652,
    "gradient": 6653,
    "grading": 6654,
    "graduate": 6655,
    "grain": 6656,
    "gram": 6657,
    "gran": 6658,
    "grass": 6659,
    "grave": 6660,
    "gravity": 6661,
    "gresql": 6662,
    "gregation": 6663,
    "gren": 6664,
    "gres": 6665,
    "gress": 6666,
    "gression": 6667,
    "gressive": 6668,
    "grim": 6669,
    "gross": 6670,
    "grounds": 6671,
    "groupon": 6672,
    "groups": 6673,
    "grow": 6674,
    "grown": 6675,
    "growth": 6676,
    "gru": 6677,
    "guards": 6678,
    "gue": 6679,
    "guided": 6680,
    "guns": 6681,
    "gur": 6682,
    "guyen": 6683,
    "gyn": 6684,
    "gypt": 6685,
    "gz": 6686,
    "haar": 6687,
    "hab": 6688,
    "habi": 6689,
    "hai": 6690,
    "hair": 6691,
    "haired": 6692,
    "hak": 6693,
    "halla": 6694,
    "hammad": 6695,
    "hammer": 6696,
    "handed": 6697,
    "handedly": 6698,
    "hander": 6699,
    "handled": 6700,
    "hands": 6701,
    "hang": 6702,
    "hani": 6703,
    "hao": 6704,
    "hap": 6705,
    "haps": 6706,
    "hardt": 6707,
    "hare": 6708,
    "hari": 6709,
    "harm": 6710,
    "hate": 6711,
    "hatt": 6712,
    "hattan": 6713,
    "haul": 6714,
    "haus": 6715,
    "haust": 6716,
    "haven": 6717,
    "hawk": 6718,
    "hawks": 6719,
    "hazard": 6720,
    "hea": 6721,
    "headed": 6722,
    "headers": 6723,
    "heading": 6724,
    "heads": 6725,
    "healthy": 6726,
    "heard": 6727,
    "hearted": 6728,
    "heartedly": 6729,
    "heast": 6730,
    "heastern": 6731,
    "hed": 6732,
    "heddar": 6733,
    "hedon": 6734,
    "hedral": 6735,
    "hee": 6736,
    "heed": 6737,
    "heet": 6738,
    "hei": 6739,
    "heid": 6740,
    "heim": 6741,
    "heimer": 6742,
    "heit": 6743,
    "held": 6744,
    "helial": 6745,
    "helle": 6746,
    "helm": 6747,
    "helps": 6748,
    "hem": 6749,
    "hemat": 6750,
    "hematic": 6751,
    "hematically": 6752,
    "hement": 6753,
    "hemer": 6754,
    "hemoth": 6755,
    "hemy": 6756,
    "hend": 6757,
    "hene": 6758,
    "heng": 6759,
    "henko": 6760,
    "hens": 6761,
    "hent": 6762,
    "heny": 6763,
    "heon": 6764,
    "hered": 6765,
    "herence": 6766,
    "herent": 6767,
    "herer": 6768,
    "heres": 6769,
    "heric": 6770,
    "herical": 6771,
    "hern": 6772,
    "herry": 6773,
    "hers": 6774,
    "herty": 6775,
    "hes": 6776,
    "hesda": 6777,
    "heses": 6778,
    "hesion": 6779,
    "hesis": 6780,
    "hesive": 6781,
    "hess": 6782,
    "hest": 6783,
    "hester": 6784,
    "het": 6785,
    "hetamine": 6786,
    "heter": 6787,
    "hetic": 6788,
    "hetical": 6789,
    "hetically": 6790,
    "hetics": 6791,
    "hett": 6792,
    "hetti": 6793,
    "hetto": 6794,
    "hew": 6795,
    "hews": 6796,
    "hex": 6797,
    "hib": 6798,
    "hiba": 6799,
    "hibit": 6800,
    "hibited": 6801,
    "hibition": 6802,
    "hid": 6803,
    "hift": 6804,
    "highest": 6805,
    "highly": 6806,
    "him": 6807,
    "hin": 6808,
    "hing": 6809,
    "hip": 6810,
    "hips": 6811,
    "hire": 6812,
    "hiro": 6813,
    "hirt": 6814,
    "historic": 6815,
    "hitting": 6816,
    "hler": 6817,
    "hma": 6818,
    "hn": 6819,
    "hner": 6820,
    "hod": 6821,
    "hoe": 6822,
    "hof": 6823,
    "hoff": 6824,
    "hog": 6825,
    "holder": 6826,
    "holders": 6827,
    "holding": 6828,
    "hole": 6829,
    "holes": 6830,
    "holiday": 6831,
    "holm": 6832,
    "hood": 6833,
    "hook": 6834,
    "hooting": 6835,
    "hops": 6836,
    "horn": 6837,
    "horse": 6838,
    "hospital": 6839,
    "hots": 6840,
    "houn": 6841,
    "hound": 6842,
    "houses": 6843,
    "housing": 6844,
    "hov": 6845,
    "hovah": 6846,
    "hover": 6847,
    "hower": 6848,
    "hra": 6849,
    "hran": 6850,
    "href": 6851,
    "htaking": 6852,
    "htar": 6853,
    "htm": 6854,
    "htt": 6855,
    "https": 6856,
    "hua": 6857,
    "huge": 6858,
    "humane": 6859,
    "humans": 6860,
    "hurst": 6861,
    "hus": 6862,
    "husband": 6863,
    "hw": 6864,
    "hya": 6865,
    "hyde": 6866,
    "ihud": 6867,
    "ios": 6868,
    "iphone": 6869,
    "iability": 6870,
    "iable": 6871,
    "iably": 6872,
    "iac": 6873,
    "iae": 6874,
    "iage": 6875,
    "iago": 6876,
    "iah": 6877,
    "iak": 6878,
    "ially": 6879,
    "ials": 6880,
    "iam": 6881,
    "iameter": 6882,
    "iami": 6883,
    "iamond": 6884,
    "iana": 6885,
    "iance": 6886,
    "iances": 6887,
    "iane": 6888,
    "iang": 6889,
    "iani": 6890,
    "iann": 6891,
    "iannopoulos": 6892,
    "iano": 6893,
    "ians": 6894,
    "iant": 6895,
    "iants": 6896,
    "iao": 6897,
    "iar": 6898,
    "iard": 6899,
    "iaries": 6900,
    "iary": 6901,
    "iasco": 6902,
    "iasis": 6903,
    "iasm": 6904,
    "iat": 6905,
    "iate": 6906,
    "iated": 6907,
    "iates": 6908,
    "iating": 6909,
    "iation": 6910,
    "iations": 6911,
    "iator": 6912,
    "iatric": 6913,
    "iatrics": 6914,
    "iatures": 6915,
    "iatus": 6916,
    "iaz": 6917,
    "iazep": 6918,
    "iba": 6919,
    "ibaba": 6920,
    "ibal": 6921,
    "iban": 6922,
    "iband": 6923,
    "ibble": 6924,
    "ibe": 6925,
    "ibel": 6926,
    "iber": 6927,
    "iberal": 6928,
    "ibi": 6929,
    "ibia": 6930,
    "ibilities": 6931,
    "ibility": 6932,
    "ibl": 6933,
    "ibles": 6934,
    "ibli": 6935,
    "iblical": 6936,
    "ibling": 6937,
    "iblings": 6938,
    "ibliography": 6939,
    "ibly": 6940,
    "ibo": 6941,
    "ibr": 6942,
    "ibrarian": 6943,
    "ibraries": 6944,
    "ibrary": 6945,
    "ibu": 6946,
    "ibur": 6947,
    "ibus": 6948,
    "icable": 6949,
    "icably": 6950,
    "icago": 6951,
    "ically": 6952,
    "icals": 6953,
    "icans": 6954,
    "icas": 6955,
    "icate": 6956,
    "icated": 6957,
    "icates": 6958,
    "icating": 6959,
    "ication": 6960,
    "ications": 6961,
    "icative": 6962,
    "icator": 6963,
    "icators": 6964,
    "icc": 6965,
    "iced": 6966,
    "icent": 6967,
    "iceps": 6968,
    "icer": 6969,
    "icester": 6970,
    "ichael": 6971,
    "iche": 6972,
    "ichen": 6973,
    "ichever": 6974,
    "ichi": 6975,
    "ichick": 6976,
    "ichita": 6977,
    "icho": 6978,
    "icht": 6979,
    "ici": 6980,
    "icia": 6981,
    "icial": 6982,
    "ician": 6983,
    "icians": 6984,
    "iciary": 6985,
    "icidal": 6986,
    "icide": 6987,
    "icides": 6988,
    "iciency": 6989,
    "icient": 6990,
    "icing": 6991,
    "icio": 6992,
    "icion": 6993,
    "icious": 6994,
    "icip": 6995,
    "icipated": 6996,
    "icism": 6997,
    "icist": 6998,
    "icit": 6999,
    "icity": 7000,
    "icka": 7001,
    "icked": 7002,
    "icken": 7003,
    "icker": 7004,
    "ickers": 7005,
    "icket": 7006,
    "ickets": 7007,
    "ickey": 7008,
    "icking": 7009,
    "ickle": 7010,
    "ickr": 7011,
    "icks": 7012,
    "ickson": 7013,
    "icky": 7014,
    "icles": 7015,
    "icol": 7016,
    "icone": 7017,
    "icons": 7018,
    "icro": 7019,
    "icrobial": 7020,
    "icted": 7021,
    "icter": 7022,
    "iction": 7023,
    "ictional": 7024,
    "ictionary": 7025,
    "ictions": 7026,
    "ictive": 7027,
    "icts": 7028,
    "icular": 7029,
    "icularly": 7030,
    "icult": 7031,
    "icultural": 7032,
    "iculture": 7033,
    "iculty": 7034,
    "icum": 7035,
    "icus": 7036,
    "icut": 7037,
    "icy": 7038,
    "icycle": 7039,
    "icz": 7040,
    "idable": 7041,
    "idad": 7042,
    "idae": 7043,
    "idal": 7044,
    "idan": 7045,
    "idas": 7046,
    "idate": 7047,
    "idated": 7048,
    "idates": 7049,
    "idation": 7050,
    "idav": 7051,
    "iday": 7052,
    "idays": 7053,
    "idd": 7054,
    "idden": 7055,
    "idding": 7056,
    "iddle": 7057,
    "iddled": 7058,
    "iddler": 7059,
    "iddles": 7060,
    "iddling": 7061,
    "iddy": 7062,
    "ided": 7063,
    "idel": 7064,
    "idelines": 7065,
    "idelity": 7066,
    "idem": 7067,
    "iden": 7068,
    "idence": 7069,
    "idences": 7070,
    "idency": 7071,
    "idental": 7072,
    "identally": 7073,
    "idential": 7074,
    "identified": 7075,
    "idently": 7076,
    "idents": 7077,
    "ideo": 7078,
    "ideon": 7079,
    "ideos": 7080,
    "idepress": 7081,
    "idered": 7082,
    "iders": 7083,
    "ideshow": 7084,
    "idespread": 7085,
    "idge": 7086,
    "idges": 7087,
    "idget": 7088,
    "idi": 7089,
    "idia": 7090,
    "idian": 7091,
    "idine": 7092,
    "iding": 7093,
    "idious": 7094,
    "idis": 7095,
    "idity": 7096,
    "idium": 7097,
    "ido": 7098,
    "idon": 7099,
    "idth": 7100,
    "idy": 7101,
    "iece": 7102,
    "ief": 7103,
    "ieft": 7104,
    "ieg": 7105,
    "iege": 7106,
    "iegel": 7107,
    "iel": 7108,
    "ielding": 7109,
    "iem": 7110,
    "ien": 7111,
    "ienced": 7112,
    "iences": 7113,
    "iencies": 7114,
    "iency": 7115,
    "ienne": 7116,
    "iens": 7117,
    "ients": 7118,
    "iera": 7119,
    "ierce": 7120,
    "iere": 7121,
    "ieri": 7122,
    "ierra": 7123,
    "ierre": 7124,
    "ierrez": 7125,
    "iers": 7126,
    "iership": 7127,
    "iery": 7128,
    "iesel": 7129,
    "iest": 7130,
    "iesta": 7131,
    "iet": 7132,
    "ietal": 7133,
    "ieth": 7134,
    "ieties": 7135,
    "iets": 7136,
    "iety": 7137,
    "ieu": 7138,
    "iev": 7139,
    "ieval": 7140,
    "ieve": 7141,
    "ieved": 7142,
    "iever": 7143,
    "ievers": 7144,
    "ieves": 7145,
    "ieving": 7146,
    "iew": 7147,
    "iewicz": 7148,
    "ifact": 7149,
    "ifacts": 7150,
    "ifax": 7151,
    "ifer": 7152,
    "iferation": 7153,
    "ifest": 7154,
    "ifestyle": 7155,
    "iffe": 7156,
    "ifference": 7157,
    "ifferent": 7158,
    "iffin": 7159,
    "iffs": 7160,
    "ifi": 7161,
    "ifiable": 7162,
    "ificant": 7163,
    "ificantly": 7164,
    "ificate": 7165,
    "ification": 7166,
    "ifications": 7167,
    "ifice": 7168,
    "ificent": 7169,
    "ificial": 7170,
    "ifier": 7171,
    "ifiers": 7172,
    "ifies": 7173,
    "ifix": 7174,
    "ifle": 7175,
    "ifled": 7176,
    "ifles": 7177,
    "ifling": 7178,
    "iflower": 7179,
    "iform": 7180,
    "iframe": 7181,
    "ifted": 7182,
    "ifter": 7183,
    "ifting": 7184,
    "ifts": 7185,
    "ifty": 7186,
    "iful": 7187,
    "ifully": 7188,
    "ify": 7189,
    "ifying": 7190,
    "iga": 7191,
    "igan": 7192,
    "igans": 7193,
    "igate": 7194,
    "igated": 7195,
    "igating": 7196,
    "igation": 7197,
    "igator": 7198,
    "igators": 7199,
    "ige": 7200,
    "igel": 7201,
    "igen": 7202,
    "igenous": 7203,
    "igent": 7204,
    "iger": 7205,
    "igers": 7206,
    "igg": 7207,
    "igger": 7208,
    "iggins": 7209,
    "iggle": 7210,
    "iggs": 7211,
    "iggurat": 7212,
    "igham": 7213,
    "ighed": 7214,
    "ighter": 7215,
    "ighters": 7216,
    "ighth": 7217,
    "ighthouse": 7218,
    "ighting": 7219,
    "ighton": 7220,
    "ighty": 7221,
    "igi": 7222,
    "igible": 7223,
    "igil": 7224,
    "igion": 7225,
    "igious": 7226,
    "igl": 7227,
    "igm": 7228,
    "igma": 7229,
    "igmat": 7230,
    "igmatic": 7231,
    "ignant": 7232,
    "igne": 7233,
    "igned": 7234,
    "igning": 7235,
    "ignment": 7236,
    "ignore": 7237,
    "ignt": 7238,
    "ignty": 7239,
    "igo": 7240,
    "igon": 7241,
    "igor": 7242,
    "igr": 7243,
    "igrant": 7244,
    "igrants": 7245,
    "igraph": 7246,
    "igrate": 7247,
    "igrated": 7248,
    "igration": 7249,
    "igree": 7250,
    "igroup": 7251,
    "igs": 7252,
    "igsaw": 7253,
    "igslist": 7254,
    "igue": 7255,
    "igun": 7256,
    "iguous": 7257,
    "igure": 7258,
    "ih": 7259,
    "ihad": 7260,
    "ihadi": 7261,
    "ihar": 7262,
    "ihara": 7263,
    "ihil": 7264,
    "ihilation": 7265,
    "ihu": 7266,
    "ija": 7267,
    "ijah": 7268,
    "iji": 7269,
    "ijing": 7270,
    "ijk": 7271,
    "ijn": 7272,
    "ijuana": 7273,
    "ika": 7274,
    "ikan": 7275,
    "ikarp": 7276,
    "ikawa": 7277,
    "ike": 7278,
    "iked": 7279,
    "iken": 7280,
    "iker": 7281,
    "ikers": 7282,
    "ikes": 7283,
    "ikh": 7284,
    "ikhail": 7285,
    "iki": 7286,
    "iking": 7287,
    "ikini": 7288,
    "ikk": 7289,
    "iko": 7290,
    "iku": 7291,
    "ikuman": 7292,
    "iky": 7293,
    "ilage": 7294,
    "ilan": 7295,
    "iland": 7296,
    "ilant": 7297,
    "ilantro": 7298,
    "ilar": 7299,
    "ilated": 7300,
    "ilater": 7301,
    "ilateral": 7302,
    "ilaterally": 7303,
    "ilation": 7304,
    "ilda": 7305,
    "ilde": 7306,
    "ilded": 7307,
    "ildo": 7308,
    "ileaks": 7309,
    "iled": 7310,
    "ilee": 7311,
    "ileen": 7312,
    "ilege": 7313,
    "ileged": 7314,
    "iler": 7315,
    "ilers": 7316,
    "iles": 7317,
    "iless": 7318,
    "ilet": 7319,
    "iley": 7320,
    "ili": 7321,
    "ilia": 7322,
    "ilial": 7323,
    "ilian": 7324,
    "iliar": 7325,
    "iliary": 7326,
    "iliate": 7327,
    "iliated": 7328,
    "iliation": 7329,
    "ilib": 7330,
    "ilibrium": 7331,
    "ilic": 7332,
    "ilies": 7333,
    "ilight": 7334,
    "iling": 7335,
    "ilings": 7336,
    "ilingual": 7337,
    "ilion": 7338,
    "ilipp": 7339,
    "ilit": 7340,
    "ilitarian": 7341,
    "ilitary": 7342,
    "ilitating": 7343,
    "ilitation": 7344,
    "ilities": 7345,
    "ility": 7346,
    "ilk": 7347,
    "illa": 7348,
    "illac": 7349,
    "illance": 7350,
    "illard": 7351,
    "illary": 7352,
    "illas": 7353,
    "illation": 7354,
    "illed": 7355,
    "illegal": 7356,
    "iller": 7357,
    "illery": 7358,
    "illes": 7359,
    "illet": 7360,
    "illi": 7361,
    "illian": 7362,
    "illin": 7363,
    "illing": 7364,
    "illion": 7365,
    "illions": 7366,
    "illo": 7367,
    "illon": 7368,
    "ills": 7369,
    "illus": 7370,
    "illusion": 7371,
    "illy": 7372,
    "ilo": 7373,
    "ilogy": 7374,
    "ilon": 7375,
    "ilot": 7376,
    "ilst": 7377,
    "ilt": 7378,
    "ilton": 7379,
    "iltr": 7380,
    "iltration": 7381,
    "ilts": 7382,
    "ilty": 7383,
    "ilus": 7384,
    "ilver": 7385,
    "ilyn": 7386,
    "ima": 7387,
    "imag": 7388,
    "imal": 7389,
    "iman": 7390,
    "imar": 7391,
    "imaru": 7392,
    "imate": 7393,
    "imated": 7394,
    "imately": 7395,
    "imates": 7396,
    "imating": 7397,
    "imation": 7398,
    "imb": 7399,
    "imbabwe": 7400,
    "imble": 7401,
    "imedia": 7402,
    "imei": 7403,
    "imen": 7404,
    "imens": 7405,
    "imensional": 7406,
    "iment": 7407,
    "imental": 7408,
    "imentary": 7409,
    "iments": 7410,
    "imeo": 7411,
    "imer": 7412,
    "imes": 7413,
    "imester": 7414,
    "imet": 7415,
    "imeter": 7416,
    "imeters": 7417,
    "img": 7418,
    "imgur": 7419,
    "imi": 7420,
    "imil": 7421,
    "imilar": 7422,
    "imilation": 7423,
    "iminary": 7424,
    "imir": 7425,
    "imity": 7426,
    "imize": 7427,
    "immer": 7428,
    "immers": 7429,
    "immigrant": 7430,
    "immigration": 7431,
    "imming": 7432,
    "immune": 7433,
    "imo": 7434,
    "imon": 7435,
    "imony": 7436,
    "imore": 7437,
    "imoto": 7438,
    "imov": 7439,
    "impact": 7440,
    "imposed": 7441,
    "ims": 7442,
    "imsy": 7443,
    "imum": 7444,
    "imura": 7445,
    "imus": 7446,
    "inally": 7447,
    "inals": 7448,
    "inance": 7449,
    "inances": 7450,
    "inant": 7451,
    "inar": 7452,
    "inarily": 7453,
    "inary": 7454,
    "inas": 7455,
    "inate": 7456,
    "inated": 7457,
    "inately": 7458,
    "inates": 7459,
    "inating": 7460,
    "ination": 7461,
    "inational": 7462,
    "inations": 7463,
    "inator": 7464,
    "inators": 7465,
    "inatory": 7466,
    "inav": 7467,
    "inburgh": 7468,
    "incarn": 7469,
    "ince": 7470,
    "incent": 7471,
    "incerity": 7472,
    "inces": 7473,
    "inch": 7474,
    "inches": 7475,
    "incial": 7476,
    "incible": 7477,
    "incinn": 7478,
    "incinnati": 7479,
    "include": 7480,
    "including": 7481,
    "incoln": 7482,
    "income": 7483,
    "increasing": 7484,
    "inct": 7485,
    "inction": 7486,
    "inctions": 7487,
    "inda": 7488,
    "indal": 7489,
    "independence": 7490,
    "inder": 7491,
    "inders": 7492,
    "inding": 7493,
    "indle": 7494,
    "indu": 7495,
    "induced": 7496,
    "inducing": 7497,
    "industrial": 7498,
    "inea": 7499,
    "ined": 7500,
    "inel": 7501,
    "inelli": 7502,
    "inem": 7503,
    "inement": 7504,
    "inen": 7505,
    "inence": 7506,
    "inent": 7507,
    "inently": 7508,
    "iner": 7509,
    "ineries": 7510,
    "iners": 7511,
    "inery": 7512,
    "ines": 7513,
    "inese": 7514,
    "inet": 7515,
    "inez": 7516,
    "infect": 7517,
    "infeld": 7518,
    "inflamm": 7519,
    "inflammatory": 7520,
    "informed": 7521,
    "inge": 7522,
    "inged": 7523,
    "ingen": 7524,
    "inger": 7525,
    "ingers": 7526,
    "inges": 7527,
    "ingham": 7528,
    "inging": 7529,
    "ingle": 7530,
    "ingly": 7531,
    "ingo": 7532,
    "ingu": 7533,
    "inguishable": 7534,
    "inguished": 7535,
    "inho": 7536,
    "ini": 7537,
    "inia": 7538,
    "inian": 7539,
    "inic": 7540,
    "inical": 7541,
    "ining": 7542,
    "inion": 7543,
    "inis": 7544,
    "inished": 7545,
    "inite": 7546,
    "initely": 7547,
    "inition": 7548,
    "initions": 7549,
    "inity": 7550,
    "inka": 7551,
    "inker": 7552,
    "inki": 7553,
    "inking": 7554,
    "inkle": 7555,
    "inks": 7556,
    "inky": 7557,
    "inline": 7558,
    "inn": 7559,
    "innacle": 7560,
    "innamon": 7561,
    "inner": 7562,
    "inness": 7563,
    "innie": 7564,
    "inning": 7565,
    "innon": 7566,
    "inoa": 7567,
    "inois": 7568,
    "inos": 7569,
    "inosaur": 7570,
    "inous": 7571,
    "inqu": 7572,
    "inse": 7573,
    "insk": 7574,
    "inski": 7575,
    "insky": 7576,
    "inson": 7577,
    "inspired": 7578,
    "installed": 7579,
    "instein": 7580,
    "insula": 7581,
    "insured": 7582,
    "intage": 7583,
    "intelligence": 7584,
    "intend": 7585,
    "intendent": 7586,
    "intendo": 7587,
    "intensity": 7588,
    "intensive": 7589,
    "intent": 7590,
    "intention": 7591,
    "interesting": 7592,
    "interpret": 7593,
    "interrupted": 7594,
    "inters": 7595,
    "intestinal": 7596,
    "inth": 7597,
    "into": 7598,
    "intosh": 7599,
    "ints": 7600,
    "intuitive": 7601,
    "inus": 7602,
    "inventory": 7603,
    "inventoryquantity": 7604,
    "invoke": 7605,
    "involved": 7606,
    "inx": 7607,
    "iny": 7608,
    "inyl": 7609,
    "ioch": 7610,
    "iod": 7611,
    "iol": 7612,
    "iola": 7613,
    "iolet": 7614,
    "iological": 7615,
    "iologist": 7616,
    "iology": 7617,
    "iom": 7618,
    "iona": 7619,
    "ionage": 7620,
    "ional": 7621,
    "ione": 7622,
    "ioned": 7623,
    "ionic": 7624,
    "ionics": 7625,
    "iop": 7626,
    "iors": 7627,
    "iosis": 7628,
    "iosity": 7629,
    "iosyn": 7630,
    "iosyncr": 7631,
    "iot": 7632,
    "iotic": 7633,
    "iotics": 7634,
    "iots": 7635,
    "iott": 7636,
    "iour": 7637,
    "ious": 7638,
    "iously": 7639,
    "iov": 7640,
    "iovascular": 7641,
    "iox": 7642,
    "ioxid": 7643,
    "ioxide": 7644,
    "ipal": 7645,
    "ipation": 7646,
    "ipe": 7647,
    "iped": 7648,
    "ipedia": 7649,
    "ipeg": 7650,
    "ipel": 7651,
    "iper": 7652,
    "ipers": 7653,
    "ipes": 7654,
    "iph": 7655,
    "iphany": 7656,
    "iphate": 7657,
    "ipher": 7658,
    "ipient": 7659,
    "iping": 7660,
    "ipl": 7661,
    "iple": 7662,
    "ipment": 7663,
    "ipolar": 7664,
    "ipop": 7665,
    "ipped": 7666,
    "ipper": 7667,
    "ippers": 7668,
    "ippery": 7669,
    "ippi": 7670,
    "ipping": 7671,
    "ipple": 7672,
    "ipples": 7673,
    "ippy": 7674,
    "ipt": 7675,
    "iqu": 7676,
    "ique": 7677,
    "iqueness": 7678,
    "iques": 7679,
    "iquette": 7680,
    "iquid": 7681,
    "ira": 7682,
    "irable": 7683,
    "iral": 7684,
    "iration": 7685,
    "ircraft": 7686,
    "irds": 7687,
    "irect": 7688,
    "irection": 7689,
    "irement": 7690,
    "irements": 7691,
    "iren": 7692,
    "irens": 7693,
    "ires": 7694,
    "irez": 7695,
    "irgin": 7696,
    "iri": 7697,
    "irie": 7698,
    "iries": 7699,
    "irin": 7700,
    "iring": 7701,
    "iris": 7702,
    "irit": 7703,
    "irk": 7704,
    "irl": 7705,
    "irled": 7706,
    "irlf": 7707,
    "irlfriend": 7708,
    "irling": 7709,
    "irlwind": 7710,
    "irm": 7711,
    "irmation": 7712,
    "irmed": 7713,
    "irming": 7714,
    "irms": 7715,
    "irrel": 7716,
    "irs": 7717,
    "irsch": 7718,
    "irst": 7719,
    "irted": 7720,
    "irteen": 7721,
    "irth": 7722,
    "irting": 7723,
    "irts": 7724,
    "irtual": 7725,
    "irty": 7726,
    "iru": 7727,
    "irus": 7728,
    "iry": 7729,
    "isspecial": 7730,
    "isspecialorderable": 7731,
    "isable": 7732,
    "isal": 7733,
    "isan": 7734,
    "isance": 7735,
    "isans": 7736,
    "isation": 7737,
    "isations": 7738,
    "isbury": 7739,
    "iscal": 7740,
    "isch": 7741,
    "ische": 7742,
    "ischer": 7743,
    "isco": 7744,
    "iscons": 7745,
    "isconsin": 7746,
    "iscopal": 7747,
    "iscover": 7748,
    "iscovered": 7749,
    "iscovery": 7750,
    "isd": 7751,
    "isdom": 7752,
    "isec": 7753,
    "ised": 7754,
    "isel": 7755,
    "isen": 7756,
    "iser": 7757,
    "isers": 7758,
    "ises": 7759,
    "iseum": 7760,
    "isexual": 7761,
    "isf": 7762,
    "isha": 7763,
    "ishable": 7764,
    "ished": 7765,
    "isher": 7766,
    "ishers": 7767,
    "ishes": 7768,
    "ishi": 7769,
    "ishing": 7770,
    "ishly": 7771,
    "ishment": 7772,
    "ishop": 7773,
    "ishops": 7774,
    "ishy": 7775,
    "isi": 7776,
    "isible": 7777,
    "isin": 7778,
    "isine": 7779,
    "ising": 7780,
    "isions": 7781,
    "isite": 7782,
    "isites": 7783,
    "isition": 7784,
    "isitions": 7785,
    "isive": 7786,
    "isively": 7787,
    "isk": 7788,
    "isks": 7789,
    "isky": 7790,
    "isl": 7791,
    "isle": 7792,
    "isma": 7793,
    "isman": 7794,
    "ismo": 7795,
    "isms": 7796,
    "isner": 7797,
    "isode": 7798,
    "isodes": 7799,
    "isoft": 7800,
    "isol": 7801,
    "isons": 7802,
    "isp": 7803,
    "ispers": 7804,
    "isphere": 7805,
    "issa": 7806,
    "issan": 7807,
    "issance": 7808,
    "isse": 7809,
    "issions": 7810,
    "isson": 7811,
    "issors": 7812,
    "issued": 7813,
    "issues": 7814,
    "issy": 7815,
    "ista": 7816,
    "istan": 7817,
    "istance": 7818,
    "istani": 7819,
    "istant": 7820,
    "istar": 7821,
    "istas": 7822,
    "iste": 7823,
    "isted": 7824,
    "istence": 7825,
    "istent": 7826,
    "istered": 7827,
    "isters": 7828,
    "istic": 7829,
    "istical": 7830,
    "istically": 7831,
    "istics": 7832,
    "istine": 7833,
    "isting": 7834,
    "istle": 7835,
    "iston": 7836,
    "istor": 7837,
    "istors": 7838,
    "istrate": 7839,
    "istrates": 7840,
    "istration": 7841,
    "istries": 7842,
    "istry": 7843,
    "ists": 7844,
    "isu": 7845,
    "isure": 7846,
    "isy": 7847,
    "ita": 7848,
    "itability": 7849,
    "itable": 7850,
    "itably": 7851,
    "itage": 7852,
    "itaire": 7853,
    "itals": 7854,
    "itamin": 7855,
    "itan": 7856,
    "itance": 7857,
    "itans": 7858,
    "itant": 7859,
    "itar": 7860,
    "itarian": 7861,
    "itars": 7862,
    "itary": 7863,
    "itas": 7864,
    "itate": 7865,
    "itated": 7866,
    "itates": 7867,
    "itating": 7868,
    "itation": 7869,
    "itational": 7870,
    "itations": 7871,
    "itative": 7872,
    "itatively": 7873,
    "itbart": 7874,
    "itched": 7875,
    "itcher": 7876,
    "itches": 7877,
    "itchie": 7878,
    "itching": 7879,
    "itech": 7880,
    "itect": 7881,
    "itely": 7882,
    "itement": 7883,
    "itent": 7884,
    "iterranean": 7885,
    "ites": 7886,
    "ithe": 7887,
    "ither": 7888,
    "ithering": 7889,
    "ithing": 7890,
    "ithmetic": 7891,
    "iths": 7892,
    "ithub": 7893,
    "iti": 7894,
    "itia": 7895,
    "itial": 7896,
    "itialized": 7897,
    "itially": 7898,
    "itic": 7899,
    "itimate": 7900,
    "itime": 7901,
    "iting": 7902,
    "itional": 7903,
    "itionally": 7904,
    "itions": 7905,
    "itious": 7906,
    "itis": 7907,
    "itism": 7908,
    "itive": 7909,
    "itiveness": 7910,
    "itives": 7911,
    "itivity": 7912,
    "itiz": 7913,
    "itized": 7914,
    "itizen": 7915,
    "itizens": 7916,
    "itle": 7917,
    "itled": 7918,
    "itles": 7919,
    "ito": 7920,
    "itol": 7921,
    "iton": 7922,
    "itone": 7923,
    "itor": 7924,
    "itored": 7925,
    "itors": 7926,
    "itory": 7927,
    "itous": 7928,
    "itri": 7929,
    "itsch": 7930,
    "itsu": 7931,
    "itta": 7932,
    "ittal": 7933,
    "ittance": 7934,
    "itte": 7935,
    "itted": 7936,
    "ittee": 7937,
    "ittees": 7938,
    "itten": 7939,
    "ittens": 7940,
    "itter": 7941,
    "ittered": 7942,
    "itters": 7943,
    "itting": 7944,
    "ittle": 7945,
    "itto": 7946,
    "itton": 7947,
    "itty": 7948,
    "itu": 7949,
    "itual": 7950,
    "itud": 7951,
    "itude": 7952,
    "itudes": 7953,
    "itudinal": 7954,
    "iture": 7955,
    "itures": 7956,
    "itus": 7957,
    "itute": 7958,
    "itutes": 7959,
    "itution": 7960,
    "itutional": 7961,
    "itz": 7962,
    "itzer": 7963,
    "itzerland": 7964,
    "it\u00e3\u00a9": 7965,
    "ius": 7966,
    "iuses": 7967,
    "iva": 7968,
    "ivable": 7969,
    "ivably": 7970,
    "ival": 7971,
    "ivalent": 7972,
    "ivalry": 7973,
    "ivals": 7974,
    "ivan": 7975,
    "ivari": 7976,
    "ivariate": 7977,
    "ivas": 7978,
    "ivated": 7979,
    "ivating": 7980,
    "ivation": 7981,
    "ived": 7982,
    "ively": 7983,
    "iven": 7984,
    "iveness": 7985,
    "ivered": 7986,
    "ivering": 7987,
    "iverpool": 7988,
    "iversal": 7989,
    "iversary": 7990,
    "iverse": 7991,
    "iversity": 7992,
    "ivery": 7993,
    "ivia": 7994,
    "ivic": 7995,
    "ivid": 7996,
    "ividual": 7997,
    "ividually": 7998,
    "ivil": 7999,
    "iving": 8000,
    "ivism": 8001,
    "ivist": 8002,
    "ivities": 8003,
    "ivity": 8004,
    "ivo": 8005,
    "ivot": 8006,
    "iw": 8007,
    "ixed": 8008,
    "ixel": 8009,
    "ixels": 8010,
    "ixie": 8011,
    "ixir": 8012,
    "ixon": 8013,
    "ixt": 8014,
    "ixtape": 8015,
    "ixties": 8016,
    "ixture": 8017,
    "ixtures": 8018,
    "ixty": 8019,
    "iy": 8020,
    "iya": 8021,
    "iyah": 8022,
    "iza": 8023,
    "izabeth": 8024,
    "izable": 8025,
    "izard": 8026,
    "izards": 8027,
    "izarre": 8028,
    "ization": 8029,
    "izational": 8030,
    "izations": 8031,
    "ized": 8032,
    "izen": 8033,
    "izens": 8034,
    "izer": 8035,
    "izers": 8036,
    "izes": 8037,
    "izing": 8038,
    "izo": 8039,
    "izon": 8040,
    "izons": 8041,
    "izont": 8042,
    "izontal": 8043,
    "izoph": 8044,
    "izophren": 8045,
    "izu": 8046,
    "izz": 8047,
    "izza": 8048,
    "izzard": 8049,
    "izzle": 8050,
    "izzy": 8051,
    "jab": 8052,
    "jad": 8053,
    "jah": 8054,
    "jamin": 8055,
    "jandro": 8056,
    "jas": 8057,
    "javascript": 8058,
    "jected": 8059,
    "jection": 8060,
    "jee": 8061,
    "ji": 8062,
    "jiang": 8063,
    "jin": 8064,
    "jing": 8065,
    "jit": 8066,
    "jl": 8067,
    "jobs": 8068,
    "joice": 8069,
    "joining": 8070,
    "jong": 8071,
    "jpg": 8072,
    "jri": 8073,
    "jriwal": 8074,
    "judicial": 8075,
    "jug": 8076,
    "jured": 8077,
    "juries": 8078,
    "jury": 8079,
    "juven": 8080,
    "khz": 8081,
    "kai": 8082,
    "kamp": 8083,
    "kan": 8084,
    "kas": 8085,
    "kaya": 8086,
    "ked": 8087,
    "kee": 8088,
    "keeper": 8089,
    "keepers": 8090,
    "kees": 8091,
    "kef": 8092,
    "kefeller": 8093,
    "kel": 8094,
    "keleton": 8095,
    "keley": 8096,
    "kell": 8097,
    "kens": 8098,
    "kept": 8099,
    "kered": 8100,
    "kernel": 8101,
    "kers": 8102,
    "kes": 8103,
    "ket": 8104,
    "keye": 8105,
    "keyes": 8106,
    "kg": 8107,
    "kie": 8108,
    "kies": 8109,
    "kil": 8110,
    "killed": 8111,
    "killer": 8112,
    "killers": 8113,
    "killing": 8114,
    "kins": 8115,
    "kinson": 8116,
    "kish": 8117,
    "kiss": 8118,
    "kj": 8119,
    "kl": 8120,
    "km": 8121,
    "knife": 8122,
    "knit": 8123,
    "knowledge": 8124,
    "kok": 8125,
    "kos": 8126,
    "kov": 8127,
    "kowski": 8128,
    "krit": 8129,
    "ksh": 8130,
    "kson": 8131,
    "ktop": 8132,
    "kun": 8133,
    "kus": 8134,
    "kw": 8135,
    "kward": 8136,
    "lace": 8137,
    "lad": 8138,
    "laden": 8139,
    "lag": 8140,
    "lah": 8141,
    "lahoma": 8142,
    "laim": 8143,
    "lain": 8144,
    "lam": 8145,
    "lambda": 8146,
    "lamm": 8147,
    "lance": 8148,
    "lander": 8149,
    "landers": 8150,
    "landish": 8151,
    "lando": 8152,
    "lands": 8153,
    "lane": 8154,
    "lang": 8155,
    "lap": 8156,
    "lar": 8157,
    "larg": 8158,
    "largest": 8159,
    "lash": 8160,
    "lass": 8161,
    "lasses": 8162,
    "lasting": 8163,
    "latable": 8164,
    "lated": 8165,
    "lation": 8166,
    "lations": 8167,
    "lator": 8168,
    "laugh": 8169,
    "laughter": 8170,
    "laus": 8171,
    "lav": 8172,
    "laws": 8173,
    "lbs": 8174,
    "lda": 8175,
    "lde": 8176,
    "lder": 8177,
    "ldom": 8178,
    "ldon": 8179,
    "leaders": 8180,
    "leading": 8181,
    "leaf": 8182,
    "leaning": 8183,
    "leanor": 8184,
    "leans": 8185,
    "leased": 8186,
    "leases": 8187,
    "leasing": 8188,
    "leck": 8189,
    "lected": 8190,
    "lectic": 8191,
    "lection": 8192,
    "lections": 8193,
    "ledge": 8194,
    "ledged": 8195,
    "leen": 8196,
    "leep": 8197,
    "lees": 8198,
    "leeve": 8199,
    "legate": 8200,
    "legates": 8201,
    "lege": 8202,
    "legged": 8203,
    "legram": 8204,
    "legraph": 8205,
    "leground": 8206,
    "lehem": 8207,
    "leigh": 8208,
    "lein": 8209,
    "lem": 8210,
    "lement": 8211,
    "lements": 8212,
    "lems": 8213,
    "lene": 8214,
    "leneck": 8215,
    "leness": 8216,
    "lers": 8217,
    "lesh": 8218,
    "lesi": 8219,
    "lesiastical": 8220,
    "lessly": 8221,
    "lessness": 8222,
    "lest": 8223,
    "letal": 8224,
    "letcher": 8225,
    "lete": 8226,
    "leted": 8227,
    "letes": 8228,
    "lethal": 8229,
    "letico": 8230,
    "leton": 8231,
    "lets": 8232,
    "lett": 8233,
    "lette": 8234,
    "letters": 8235,
    "levant": 8236,
    "levard": 8237,
    "levels": 8238,
    "levision": 8239,
    "leys": 8240,
    "lez": 8241,
    "lf": 8242,
    "lia": 8243,
    "liam": 8244,
    "liament": 8245,
    "lication": 8246,
    "licensed": 8247,
    "lich": 8248,
    "licks": 8249,
    "lict": 8250,
    "licted": 8251,
    "liction": 8252,
    "licts": 8253,
    "lied": 8254,
    "lier": 8255,
    "lies": 8256,
    "liest": 8257,
    "lif": 8258,
    "lift": 8259,
    "lifting": 8260,
    "lig": 8261,
    "liga": 8262,
    "lighting": 8263,
    "lightly": 8264,
    "lights": 8265,
    "lihood": 8266,
    "lik": 8267,
    "likely": 8268,
    "lime": 8269,
    "limits": 8270,
    "linear": 8271,
    "lined": 8272,
    "liner": 8273,
    "liners": 8274,
    "lines": 8275,
    "liness": 8276,
    "ling": 8277,
    "linger": 8278,
    "lings": 8279,
    "lington": 8280,
    "lining": 8281,
    "linked": 8282,
    "lins": 8283,
    "lio": 8284,
    "lip": 8285,
    "lique": 8286,
    "lis": 8287,
    "lish": 8288,
    "lished": 8289,
    "lisher": 8290,
    "lishes": 8291,
    "lishing": 8292,
    "listed": 8293,
    "lists": 8294,
    "lit": 8295,
    "lite": 8296,
    "literally": 8297,
    "liv": 8298,
    "lived": 8299,
    "livion": 8300,
    "livious": 8301,
    "lla": 8302,
    "llah": 8303,
    "llan": 8304,
    "lled": 8305,
    "ller": 8306,
    "llers": 8307,
    "lli": 8308,
    "lling": 8309,
    "llo": 8310,
    "llor": 8311,
    "llular": 8312,
    "lly": 8313,
    "ln": 8314,
    "loaded": 8315,
    "loads": 8316,
    "localhost": 8317,
    "locked": 8318,
    "locking": 8319,
    "locks": 8320,
    "loe": 8321,
    "lol": 8322,
    "lon": 8323,
    "loo": 8324,
    "lopp": 8325,
    "lor": 8326,
    "lords": 8327,
    "lore": 8328,
    "loss": 8329,
    "lov": 8330,
    "loving": 8331,
    "luaj": 8332,
    "lucent": 8333,
    "lude": 8334,
    "luence": 8335,
    "luent": 8336,
    "lund": 8337,
    "lus": 8338,
    "lust": 8339,
    "luster": 8340,
    "lux": 8341,
    "lves": 8342,
    "lvl": 8343,
    "lyak": 8344,
    "lycer": 8345,
    "lying": 8346,
    "lymp": 8347,
    "lynn": 8348,
    "lys": 8349,
    "lyss": 8350,
    "l\u00e3\u00a9": 8351,
    "mable": 8352,
    "mage": 8353,
    "maid": 8354,
    "mails": 8355,
    "majority": 8356,
    "makers": 8357,
    "makes": 8358,
    "malink": 8359,
    "mallow": 8360,
    "manac": 8361,
    "managed": 8362,
    "manent": 8363,
    "mann": 8364,
    "mans": 8365,
    "manship": 8366,
    "manuel": 8367,
    "mare": 8368,
    "mares": 8369,
    "margin": 8370,
    "marine": 8371,
    "marked": 8372,
    "markets": 8373,
    "marks": 8374,
    "marriage": 8375,
    "married": 8376,
    "massive": 8377,
    "mast": 8378,
    "masters": 8379,
    "matched": 8380,
    "mate": 8381,
    "mates": 8382,
    "matic": 8383,
    "matical": 8384,
    "matically": 8385,
    "matter": 8386,
    "maxwell": 8387,
    "mber": 8388,
    "mberg": 8389,
    "mble": 8390,
    "mbol": 8391,
    "mbuds": 8392,
    "mbudsman": 8393,
    "meal": 8394,
    "mean": 8395,
    "meaning": 8396,
    "measures": 8397,
    "medi": 8398,
    "mediate": 8399,
    "mediated": 8400,
    "mediately": 8401,
    "meier": 8402,
    "melon": 8403,
    "mens": 8404,
    "mental": 8405,
    "mentation": 8406,
    "mented": 8407,
    "mentioned": 8408,
    "merce": 8409,
    "mercial": 8410,
    "mere": 8411,
    "merga": 8412,
    "meric": 8413,
    "mers": 8414,
    "mes": 8415,
    "metadata": 8416,
    "meter": 8417,
    "methyl": 8418,
    "metic": 8419,
    "metics": 8420,
    "metry": 8421,
    "meyer": 8422,
    "mia": 8423,
    "miah": 8424,
    "midt": 8425,
    "mie": 8426,
    "might": 8427,
    "mile": 8428,
    "million": 8429,
    "milo": 8430,
    "mination": 8431,
    "minded": 8432,
    "minent": 8433,
    "ming": 8434,
    "mingham": 8435,
    "mington": 8436,
    "mining": 8437,
    "minist": 8438,
    "ministic": 8439,
    "mins": 8440,
    "minster": 8441,
    "mint": 8442,
    "minus": 8443,
    "minute": 8444,
    "mire": 8445,
    "misc": 8446,
    "missible": 8447,
    "missions": 8448,
    "missive": 8449,
    "mite": 8450,
    "mith": 8451,
    "mits": 8452,
    "mitt": 8453,
    "mitted": 8454,
    "mittedly": 8455,
    "mitter": 8456,
    "mitting": 8457,
    "mma": 8458,
    "mobi": 8459,
    "models": 8460,
    "moderate": 8461,
    "modified": 8462,
    "modules": 8463,
    "moil": 8464,
    "mol": 8465,
    "mology": 8466,
    "monary": 8467,
    "mond": 8468,
    "monds": 8469,
    "mone": 8470,
    "mong": 8471,
    "monkey": 8472,
    "mons": 8473,
    "months": 8474,
    "monton": 8475,
    "mony": 8476,
    "mop": 8477,
    "mopolitan": 8478,
    "moral": 8479,
    "morph": 8480,
    "morrow": 8481,
    "mort": 8482,
    "mortem": 8483,
    "mosp": 8484,
    "mostly": 8485,
    "mounted": 8486,
    "mouth": 8487,
    "mpeg": 8488,
    "mph": 8489,
    "mpire": 8490,
    "mson": 8491,
    "mud": 8492,
    "multipl": 8493,
    "mun": 8494,
    "mund": 8495,
    "munition": 8496,
    "myra": 8497,
    "mys": 8498,
    "nah": 8499,
    "nai": 8500,
    "naire": 8501,
    "naires": 8502,
    "naissance": 8503,
    "nam": 8504,
    "named": 8505,
    "namese": 8506,
    "nan": 8507,
    "nance": 8508,
    "nant": 8509,
    "nants": 8510,
    "nard": 8511,
    "natal": 8512,
    "natureconservancy": 8513,
    "nce": 8514,
    "nces": 8515,
    "nda": 8516,
    "nder": 8517,
    "ndra": 8518,
    "ndum": 8519,
    "nea": 8520,
    "neapolis": 8521,
    "neath": 8522,
    "neau": 8523,
    "nec": 8524,
    "necess": 8525,
    "necessary": 8526,
    "neck": 8527,
    "ned": 8528,
    "nee": 8529,
    "needed": 8530,
    "needs": 8531,
    "negative": 8532,
    "negie": 8533,
    "nel": 8534,
    "nell": 8535,
    "nels": 8536,
    "nen": 8537,
    "nered": 8538,
    "nerg": 8539,
    "nergy": 8540,
    "ners": 8541,
    "nery": 8542,
    "nesday": 8543,
    "nesia": 8544,
    "nesium": 8545,
    "nesota": 8546,
    "nesses": 8547,
    "nesty": 8548,
    "netic": 8549,
    "nets": 8550,
    "nette": 8551,
    "neum": 8552,
    "neutral": 8553,
    "nex": 8554,
    "nexpected": 8555,
    "nexus": 8556,
    "neys": 8557,
    "ngth": 8558,
    "nia": 8559,
    "nian": 8560,
    "nie": 8561,
    "nih": 8562,
    "nikov": 8563,
    "nil": 8564,
    "nings": 8565,
    "nington": 8566,
    "niper": 8567,
    "nir": 8568,
    "nis": 8569,
    "nom": 8570,
    "noon": 8571,
    "nos": 8572,
    "nosis": 8573,
    "nostic": 8574,
    "notation": 8575,
    "notations": 8576,
    "noticed": 8577,
    "nova": 8578,
    "nown": 8579,
    "nox": 8580,
    "noxious": 8581,
    "nsic": 8582,
    "nsics": 8583,
    "ntax": 8584,
    "ntil": 8585,
    "nton": 8586,
    "nu": 8587,
    "nuclear": 8588,
    "numbered": 8589,
    "nutrition": 8590,
    "nuts": 8591,
    "nyder": 8592,
    "oaded": 8593,
    "oan": 8594,
    "oard": 8595,
    "oat": 8596,
    "oba": 8597,
    "obal": 8598,
    "obar": 8599,
    "obb": 8600,
    "obbies": 8601,
    "obby": 8602,
    "obe": 8603,
    "ober": 8604,
    "obi": 8605,
    "obia": 8606,
    "obic": 8607,
    "obil": 8608,
    "obile": 8609,
    "obiles": 8610,
    "obin": 8611,
    "objects": 8612,
    "obl": 8613,
    "obo": 8614,
    "obook": 8615,
    "obos": 8616,
    "oby": 8617,
    "obyl": 8618,
    "oca": 8619,
    "ocado": 8620,
    "ocal": 8621,
    "ocally": 8622,
    "ocaly": 8623,
    "ocalypse": 8624,
    "ocalyptic": 8625,
    "ocamp": 8626,
    "ocard": 8627,
    "ocate": 8628,
    "ocated": 8629,
    "ocating": 8630,
    "ocation": 8631,
    "ocations": 8632,
    "ocative": 8633,
    "ocaust": 8634,
    "occupied": 8635,
    "ocene": 8636,
    "ocent": 8637,
    "ocese": 8638,
    "och": 8639,
    "oche": 8640,
    "ochem": 8641,
    "ochemical": 8642,
    "ochemistry": 8643,
    "ochet": 8644,
    "ochond": 8645,
    "oci": 8646,
    "ocial": 8647,
    "ociate": 8648,
    "ociated": 8649,
    "ociation": 8650,
    "ocide": 8651,
    "ocious": 8652,
    "ocity": 8653,
    "ocked": 8654,
    "ocker": 8655,
    "ocket": 8656,
    "ockets": 8657,
    "ockey": 8658,
    "ocking": 8659,
    "ocks": 8660,
    "ocl": 8661,
    "oco": 8662,
    "ocobo": 8663,
    "ococ": 8664,
    "ocol": 8665,
    "ocolate": 8666,
    "ocom": 8667,
    "ocon": 8668,
    "ocr": 8669,
    "ocracy": 8670,
    "ocrat": 8671,
    "ocrates": 8672,
    "ocratic": 8673,
    "ocrats": 8674,
    "ocre": 8675,
    "ocrin": 8676,
    "ocrine": 8677,
    "ocry": 8678,
    "ocular": 8679,
    "ocument": 8680,
    "ocumented": 8681,
    "ocus": 8682,
    "ocused": 8683,
    "ocusing": 8684,
    "ocy": 8685,
    "ocyte": 8686,
    "ocytes": 8687,
    "oda": 8688,
    "odan": 8689,
    "oday": 8690,
    "odcast": 8691,
    "odd": 8692,
    "odder": 8693,
    "oddy": 8694,
    "oded": 8695,
    "oder": 8696,
    "odes": 8697,
    "odge": 8698,
    "odi": 8699,
    "odiac": 8700,
    "odic": 8701,
    "odied": 8702,
    "odies": 8703,
    "oding": 8704,
    "odium": 8705,
    "odka": 8706,
    "odo": 8707,
    "odon": 8708,
    "odor": 8709,
    "odore": 8710,
    "odox": 8711,
    "ods": 8712,
    "odus": 8713,
    "odynam": 8714,
    "odynamic": 8715,
    "odynamics": 8716,
    "oen": 8717,
    "oenix": 8718,
    "oes": 8719,
    "oeuv": 8720,
    "ofer": 8721,
    "offensive": 8722,
    "offer": 8723,
    "offs": 8724,
    "ofi": 8725,
    "oft": 8726,
    "oga": 8727,
    "ogan": 8728,
    "ogen": 8729,
    "ogene": 8730,
    "ogeneity": 8731,
    "ogeneous": 8732,
    "ogenesis": 8733,
    "ogenic": 8734,
    "ogenous": 8735,
    "ogens": 8736,
    "ogether": 8737,
    "ogg": 8738,
    "ogged": 8739,
    "ogging": 8740,
    "oggle": 8741,
    "oggles": 8742,
    "ogh": 8743,
    "ogi": 8744,
    "ogical": 8745,
    "ogie": 8746,
    "ogl": 8747,
    "ogle": 8748,
    "oglobin": 8749,
    "oglu": 8750,
    "ogly": 8751,
    "ogn": 8752,
    "ognitive": 8753,
    "ogo": 8754,
    "ogram": 8755,
    "ograms": 8756,
    "ograp": 8757,
    "ograph": 8758,
    "ographed": 8759,
    "ographer": 8760,
    "ographers": 8761,
    "ographic": 8762,
    "ographical": 8763,
    "ographically": 8764,
    "ographics": 8765,
    "ographies": 8766,
    "ographs": 8767,
    "ography": 8768,
    "ogs": 8769,
    "ogue": 8770,
    "ogun": 8771,
    "ogy": 8772,
    "ogyn": 8773,
    "oha": 8774,
    "ohan": 8775,
    "ohl": 8776,
    "ohm": 8777,
    "oho": 8778,
    "ohyd": 8779,
    "ohydrate": 8780,
    "oi": 8781,
    "oice": 8782,
    "oid": 8783,
    "oidal": 8784,
    "oided": 8785,
    "oids": 8786,
    "oiler": 8787,
    "oin": 8788,
    "oine": 8789,
    "oing": 8790,
    "oint": 8791,
    "ointed": 8792,
    "ointment": 8793,
    "oir": 8794,
    "oire": 8795,
    "ois": 8796,
    "oise": 8797,
    "oit": 8798,
    "oj": 8799,
    "oji": 8800,
    "ojure": 8801,
    "oka": 8802,
    "okane": 8803,
    "oke": 8804,
    "oked": 8805,
    "okemon": 8806,
    "oken": 8807,
    "oker": 8808,
    "okers": 8809,
    "okes": 8810,
    "oki": 8811,
    "okia": 8812,
    "okin": 8813,
    "oking": 8814,
    "okingly": 8815,
    "oko": 8816,
    "oks": 8817,
    "oku": 8818,
    "oky": 8819,
    "ok\u00e3\u00a9": 8820,
    "ola": 8821,
    "olan": 8822,
    "oland": 8823,
    "olar": 8824,
    "olars": 8825,
    "olas": 8826,
    "olate": 8827,
    "olated": 8828,
    "olation": 8829,
    "olded": 8830,
    "oldemort": 8831,
    "older": 8832,
    "olding": 8833,
    "oldown": 8834,
    "olds": 8835,
    "ole": 8836,
    "olean": 8837,
    "oled": 8838,
    "olen": 8839,
    "oleon": 8840,
    "oler": 8841,
    "olerance": 8842,
    "oles": 8843,
    "olesc": 8844,
    "olescent": 8845,
    "olester": 8846,
    "olesterol": 8847,
    "oley": 8848,
    "olf": 8849,
    "oli": 8850,
    "olia": 8851,
    "oliath": 8852,
    "oliberal": 8853,
    "olic": 8854,
    "olicited": 8855,
    "olics": 8856,
    "olicy": 8857,
    "olid": 8858,
    "olin": 8859,
    "olina": 8860,
    "oline": 8861,
    "oling": 8862,
    "olini": 8863,
    "olis": 8864,
    "olit": 8865,
    "olitan": 8866,
    "olith": 8867,
    "olithic": 8868,
    "olitical": 8869,
    "olitics": 8870,
    "olition": 8871,
    "olk": 8872,
    "olkien": 8873,
    "oll": 8874,
    "olla": 8875,
    "ollah": 8876,
    "ollar": 8877,
    "ollen": 8878,
    "oller": 8879,
    "ollo": 8880,
    "ollow": 8881,
    "ollower": 8882,
    "olls": 8883,
    "olly": 8884,
    "ollywood": 8885,
    "oln": 8886,
    "olo": 8887,
    "ologic": 8888,
    "ological": 8889,
    "ologically": 8890,
    "ologies": 8891,
    "ologist": 8892,
    "ologists": 8893,
    "ologne": 8894,
    "ologue": 8895,
    "olon": 8896,
    "olor": 8897,
    "olph": 8898,
    "olphin": 8899,
    "olphins": 8900,
    "ols": 8901,
    "olson": 8902,
    "olt": 8903,
    "olulu": 8904,
    "olute": 8905,
    "olutely": 8906,
    "olution": 8907,
    "olutions": 8908,
    "olve": 8909,
    "olved": 8910,
    "olver": 8911,
    "olves": 8912,
    "olving": 8913,
    "oly": 8914,
    "olyn": 8915,
    "oma": 8916,
    "omach": 8917,
    "omal": 8918,
    "omaly": 8919,
    "oman": 8920,
    "omas": 8921,
    "omatic": 8922,
    "omb": 8923,
    "ombat": 8924,
    "ombie": 8925,
    "ombies": 8926,
    "ombo": 8927,
    "ombs": 8928,
    "omed": 8929,
    "omedical": 8930,
    "omen": 8931,
    "omer": 8932,
    "omers": 8933,
    "omes": 8934,
    "omet": 8935,
    "ometer": 8936,
    "ometers": 8937,
    "omething": 8938,
    "ometime": 8939,
    "ometimes": 8940,
    "ometown": 8941,
    "ometric": 8942,
    "ometry": 8943,
    "omever": 8944,
    "omew": 8945,
    "omez": 8946,
    "omi": 8947,
    "omial": 8948,
    "omic": 8949,
    "omical": 8950,
    "omics": 8951,
    "omin": 8952,
    "ominated": 8953,
    "omination": 8954,
    "oming": 8955,
    "ominium": 8956,
    "omm": 8957,
    "ommel": 8958,
    "ommod": 8959,
    "omnia": 8960,
    "omo": 8961,
    "omon": 8962,
    "omore": 8963,
    "omorph": 8964,
    "omorphic": 8965,
    "omp": 8966,
    "ompl": 8967,
    "oms": 8968,
    "omsday": 8969,
    "omsky": 8970,
    "omy": 8971,
    "ona": 8972,
    "onal": 8973,
    "onda": 8974,
    "onday": 8975,
    "onde": 8976,
    "onder": 8977,
    "onding": 8978,
    "ondo": 8979,
    "onds": 8980,
    "onduct": 8981,
    "onductor": 8982,
    "oned": 8983,
    "onel": 8984,
    "oneliness": 8985,
    "onement": 8986,
    "onen": 8987,
    "onent": 8988,
    "onential": 8989,
    "onents": 8990,
    "oner": 8991,
    "onest": 8992,
    "onet": 8993,
    "onew": 8994,
    "onga": 8995,
    "onge": 8996,
    "ongevity": 8997,
    "ongh": 8998,
    "ongo": 8999,
    "ongs": 9000,
    "ongyang": 9001,
    "oni": 9002,
    "onia": 9003,
    "onial": 9004,
    "onian": 9005,
    "onic": 9006,
    "onica": 9007,
    "onics": 9008,
    "onies": 9009,
    "oning": 9010,
    "onis": 9011,
    "onite": 9012,
    "onna": 9013,
    "onnaissance": 9014,
    "onne": 9015,
    "ono": 9016,
    "onom": 9017,
    "onomic": 9018,
    "onomous": 9019,
    "onomy": 9020,
    "onse": 9021,
    "onsense": 9022,
    "onsequ": 9023,
    "onso": 9024,
    "onson": 9025,
    "onte": 9026,
    "ontent": 9027,
    "onto": 9028,
    "onut": 9029,
    "onym": 9030,
    "onymous": 9031,
    "onyms": 9032,
    "onz": 9033,
    "oodle": 9034,
    "oodoo": 9035,
    "oof": 9036,
    "ooked": 9037,
    "ookie": 9038,
    "ooks": 9039,
    "ooky": 9040,
    "oola": 9041,
    "ools": 9042,
    "oom": 9043,
    "ooming": 9044,
    "oon": 9045,
    "oons": 9046,
    "oop": 9047,
    "oops": 9048,
    "oor": 9049,
    "oos": 9050,
    "oot": 9051,
    "ooter": 9052,
    "ooters": 9053,
    "ooth": 9054,
    "oother": 9055,
    "ooting": 9056,
    "oots": 9057,
    "opal": 9058,
    "opard": 9059,
    "opath": 9060,
    "opathic": 9061,
    "opathy": 9062,
    "opausal": 9063,
    "oped": 9064,
    "opened": 9065,
    "opens": 9066,
    "operated": 9067,
    "operative": 9068,
    "operator": 9069,
    "opers": 9070,
    "opes": 9071,
    "opez": 9072,
    "oph": 9073,
    "ophe": 9074,
    "ophen": 9075,
    "opher": 9076,
    "ophers": 9077,
    "ophical": 9078,
    "ophile": 9079,
    "ophob": 9080,
    "ophobia": 9081,
    "ophobic": 9082,
    "ophon": 9083,
    "ophone": 9084,
    "ophy": 9085,
    "ophys": 9086,
    "ophysical": 9087,
    "opia": 9088,
    "opian": 9089,
    "opic": 9090,
    "oping": 9091,
    "opl": 9092,
    "oplan": 9093,
    "oples": 9094,
    "opol": 9095,
    "opolis": 9096,
    "opoly": 9097,
    "opot": 9098,
    "opoulos": 9099,
    "oppable": 9100,
    "opped": 9101,
    "oppers": 9102,
    "opping": 9103,
    "oppy": 9104,
    "opsis": 9105,
    "opsy": 9106,
    "opted": 9107,
    "opter": 9108,
    "optim": 9109,
    "opus": 9110,
    "opy": 9111,
    "oqu": 9112,
    "ora": 9113,
    "orable": 9114,
    "orage": 9115,
    "orah": 9116,
    "oral": 9117,
    "orama": 9118,
    "oran": 9119,
    "oras": 9120,
    "orate": 9121,
    "oration": 9122,
    "orative": 9123,
    "orb": 9124,
    "orbit": 9125,
    "orc": 9126,
    "orce": 9127,
    "ordable": 9128,
    "ordan": 9129,
    "orde": 9130,
    "ordered": 9131,
    "ordering": 9132,
    "orders": 9133,
    "ordes": 9134,
    "ordial": 9135,
    "ordinary": 9136,
    "ordinate": 9137,
    "ording": 9138,
    "ordon": 9139,
    "ords": 9140,
    "oreand": 9141,
    "oreandonline": 9142,
    "orea": 9143,
    "oreal": 9144,
    "orean": 9145,
    "orem": 9146,
    "oren": 9147,
    "orer": 9148,
    "orers": 9149,
    "ores": 9150,
    "oresc": 9151,
    "orescence": 9152,
    "orescent": 9153,
    "orest": 9154,
    "oret": 9155,
    "orf": 9156,
    "organic": 9157,
    "organisms": 9158,
    "organized": 9159,
    "orget": 9160,
    "orgetown": 9161,
    "ori": 9162,
    "oria": 9163,
    "orial": 9164,
    "orian": 9165,
    "orians": 9166,
    "oric": 9167,
    "orical": 9168,
    "orically": 9169,
    "orie": 9170,
    "oried": 9171,
    "orient": 9172,
    "oriented": 9173,
    "ories": 9174,
    "oring": 9175,
    "orio": 9176,
    "orious": 9177,
    "oris": 9178,
    "ority": 9179,
    "orius": 9180,
    "orks": 9181,
    "orkshire": 9182,
    "orld": 9183,
    "orm": 9184,
    "ormal": 9185,
    "orman": 9186,
    "ormon": 9187,
    "ormonal": 9188,
    "ormons": 9189,
    "orne": 9190,
    "orned": 9191,
    "orney": 9192,
    "orneys": 9193,
    "ornia": 9194,
    "ornings": 9195,
    "orno": 9196,
    "orns": 9197,
    "oro": 9198,
    "oros": 9199,
    "orough": 9200,
    "orous": 9201,
    "orously": 9202,
    "orp": 9203,
    "orph": 9204,
    "orpor": 9205,
    "orporated": 9206,
    "orr": 9207,
    "orrect": 9208,
    "orrow": 9209,
    "orry": 9210,
    "orsche": 9211,
    "orse": 9212,
    "orses": 9213,
    "orset": 9214,
    "orship": 9215,
    "orsi": 9216,
    "orst": 9217,
    "ortal": 9218,
    "ortality": 9219,
    "orted": 9220,
    "orter": 9221,
    "orters": 9222,
    "ortex": 9223,
    "orth": 9224,
    "orthern": 9225,
    "orthodox": 9226,
    "orthy": 9227,
    "orting": 9228,
    "ortion": 9229,
    "ortium": 9230,
    "ortment": 9231,
    "ortmund": 9232,
    "ortun": 9233,
    "ortunate": 9234,
    "ortunately": 9235,
    "oru": 9236,
    "orum": 9237,
    "orus": 9238,
    "osa": 9239,
    "osal": 9240,
    "osate": 9241,
    "osaurs": 9242,
    "osaurus": 9243,
    "osc": 9244,
    "oscope": 9245,
    "oscopic": 9246,
    "osen": 9247,
    "oser": 9248,
    "oses": 9249,
    "osexual": 9250,
    "oshenko": 9251,
    "osher": 9252,
    "oshi": 9253,
    "oshop": 9254,
    "osi": 9255,
    "osing": 9256,
    "osion": 9257,
    "osis": 9258,
    "osit": 9259,
    "osite": 9260,
    "osition": 9261,
    "ositories": 9262,
    "ository": 9263,
    "osity": 9264,
    "oslav": 9265,
    "oslov": 9266,
    "oso": 9267,
    "ospace": 9268,
    "ospel": 9269,
    "ospels": 9270,
    "osph": 9271,
    "osphere": 9272,
    "ospital": 9273,
    "ospons": 9274,
    "osponsors": 9275,
    "ossal": 9276,
    "ossession": 9277,
    "ossibility": 9278,
    "ossible": 9279,
    "ossibly": 9280,
    "ossier": 9281,
    "ossip": 9282,
    "ossom": 9283,
    "ossus": 9284,
    "osta": 9285,
    "oster": 9286,
    "osterone": 9287,
    "ostic": 9288,
    "ostics": 9289,
    "oston": 9290,
    "osuke": 9291,
    "osure": 9292,
    "osures": 9293,
    "otally": 9294,
    "otation": 9295,
    "otaur": 9296,
    "otech": 9297,
    "otechnology": 9298,
    "oted": 9299,
    "otent": 9300,
    "oter": 9301,
    "oteric": 9302,
    "oters": 9303,
    "otes": 9304,
    "othal": 9305,
    "othe": 9306,
    "otherapy": 9307,
    "othermal": 9308,
    "othes": 9309,
    "othing": 9310,
    "oths": 9311,
    "othy": 9312,
    "oti": 9313,
    "otiation": 9314,
    "otic": 9315,
    "otics": 9316,
    "otide": 9317,
    "otin": 9318,
    "otine": 9319,
    "oting": 9320,
    "otion": 9321,
    "otional": 9322,
    "otions": 9323,
    "otive": 9324,
    "otle": 9325,
    "otom": 9326,
    "otomy": 9327,
    "oton": 9328,
    "otonin": 9329,
    "otor": 9330,
    "otrop": 9331,
    "otropic": 9332,
    "otta": 9333,
    "ottage": 9334,
    "otte": 9335,
    "otted": 9336,
    "otten": 9337,
    "ottenham": 9338,
    "ottest": 9339,
    "ottesville": 9340,
    "otti": 9341,
    "otto": 9342,
    "otton": 9343,
    "otyp": 9344,
    "otype": 9345,
    "otypes": 9346,
    "oub": 9347,
    "ouble": 9348,
    "oubt": 9349,
    "oubted": 9350,
    "oubtedly": 9351,
    "ouch": 9352,
    "ouched": 9353,
    "oud": 9354,
    "ouf": 9355,
    "oufl": 9356,
    "oug": 9357,
    "ought": 9358,
    "ouk": 9359,
    "oul": 9360,
    "oulder": 9361,
    "oulos": 9362,
    "ouls": 9363,
    "oult": 9364,
    "oultry": 9365,
    "ounce": 9366,
    "ounced": 9367,
    "ounces": 9368,
    "ouncing": 9369,
    "ounded": 9370,
    "ounding": 9371,
    "ounds": 9372,
    "ounge": 9373,
    "ountain": 9374,
    "ounter": 9375,
    "ounters": 9376,
    "ounty": 9377,
    "ouple": 9378,
    "ourage": 9379,
    "ourced": 9380,
    "ources": 9381,
    "ourcing": 9382,
    "oured": 9383,
    "ourge": 9384,
    "ourgeois": 9385,
    "ouri": 9386,
    "ouring": 9387,
    "ourke": 9388,
    "ourmet": 9389,
    "ourn": 9390,
    "ournal": 9391,
    "ournals": 9392,
    "ournament": 9393,
    "ournaments": 9394,
    "ourney": 9395,
    "ourning": 9396,
    "ours": 9397,
    "ourse": 9398,
    "ourses": 9399,
    "ourt": 9400,
    "ousand": 9401,
    "ousands": 9402,
    "ouse": 9403,
    "oused": 9404,
    "ousel": 9405,
    "ouses": 9406,
    "ousing": 9407,
    "ously": 9408,
    "ousse": 9409,
    "oust": 9410,
    "oustic": 9411,
    "ouston": 9412,
    "ousy": 9413,
    "oute": 9414,
    "outed": 9415,
    "outer": 9416,
    "outh": 9417,
    "outheast": 9418,
    "outheastern": 9419,
    "outher": 9420,
    "outhern": 9421,
    "outine": 9422,
    "outing": 9423,
    "outs": 9424,
    "outube": 9425,
    "ouver": 9426,
    "oux": 9427,
    "ovable": 9428,
    "oval": 9429,
    "ovan": 9430,
    "ovation": 9431,
    "ove": 9432,
    "oved": 9433,
    "ovember": 9434,
    "oven": 9435,
    "overe": 9436,
    "overed": 9437,
    "overs": 9438,
    "overty": 9439,
    "overy": 9440,
    "oves": 9441,
    "ovi": 9442,
    "ovic": 9443,
    "ovich": 9444,
    "ovie": 9445,
    "ovies": 9446,
    "oving": 9447,
    "ovo": 9448,
    "ovsky": 9449,
    "ovy": 9450,
    "ovych": 9451,
    "owa": 9452,
    "owan": 9453,
    "oward": 9454,
    "oway": 9455,
    "owder": 9456,
    "owe": 9457,
    "owed": 9458,
    "owell": 9459,
    "owered": 9460,
    "owers": 9461,
    "owicz": 9462,
    "owing": 9463,
    "owitz": 9464,
    "owl": 9465,
    "owler": 9466,
    "owment": 9467,
    "owned": 9468,
    "owners": 9469,
    "ownt": 9470,
    "owntown": 9471,
    "owship": 9472,
    "owski": 9473,
    "owsky": 9474,
    "oxic": 9475,
    "oxicity": 9476,
    "oxide": 9477,
    "oxin": 9478,
    "oxy": 9479,
    "oya": 9480,
    "oyal": 9481,
    "oyd": 9482,
    "oyer": 9483,
    "oyle": 9484,
    "oys": 9485,
    "oz": 9486,
    "ozo": 9487,
    "ozy": 9488,
    "ozyg": 9489,
    "o\u00e4\u0142": 9490,
    "o\u00e4\u0142an": 9491,
    "pace": 9492,
    "paced": 9493,
    "paces": 9494,
    "packages": 9495,
    "packed": 9496,
    "packing": 9497,
    "packs": 9498,
    "padding": 9499,
    "pai": 9500,
    "paid": 9501,
    "painted": 9502,
    "paio": 9503,
    "pair": 9504,
    "panic": 9505,
    "pants": 9506,
    "papers": 9507,
    "parable": 9508,
    "paragraph": 9509,
    "paralle": 9510,
    "paralleled": 9511,
    "params": 9512,
    "pard": 9513,
    "pared": 9514,
    "paren": 9515,
    "parency": 9516,
    "parse": 9517,
    "partial": 9518,
    "particularly": 9519,
    "partisan": 9520,
    "pas": 9521,
    "paste": 9522,
    "pathic": 9523,
    "pathy": 9524,
    "patient": 9525,
    "payer": 9526,
    "payers": 9527,
    "paying": 9528,
    "payment": 9529,
    "peak": 9530,
    "peat": 9531,
    "pec": 9532,
    "pecially": 9533,
    "pect": 9534,
    "pected": 9535,
    "pecting": 9536,
    "pection": 9537,
    "pects": 9538,
    "pedia": 9539,
    "pee": 9540,
    "peed": 9541,
    "peer": 9542,
    "pees": 9543,
    "peg": 9544,
    "pei": 9545,
    "pel": 9546,
    "pell": 9547,
    "pelled": 9548,
    "pelling": 9549,
    "pend": 9550,
    "pent": 9551,
    "penter": 9552,
    "perate": 9553,
    "perature": 9554,
    "pered": 9555,
    "performing": 9556,
    "peria": 9557,
    "perial": 9558,
    "pering": 9559,
    "period": 9560,
    "perm": 9561,
    "peror": 9562,
    "perors": 9563,
    "perse": 9564,
    "pert": 9565,
    "perties": 9566,
    "perture": 9567,
    "perty": 9568,
    "pes": 9569,
    "pex": 9570,
    "pez": 9571,
    "pha": 9572,
    "phabet": 9573,
    "phal": 9574,
    "phalt": 9575,
    "phan": 9576,
    "phans": 9577,
    "phant": 9578,
    "phas": 9579,
    "phasis": 9580,
    "phe": 9581,
    "phen": 9582,
    "pher": 9583,
    "pherd": 9584,
    "pheus": 9585,
    "phi": 9586,
    "phia": 9587,
    "phies": 9588,
    "philis": 9589,
    "phis": 9590,
    "phony": 9591,
    "php": 9592,
    "phrase": 9593,
    "phrine": 9594,
    "phthal": 9595,
    "phy": 9596,
    "picked": 9597,
    "picking": 9598,
    "pictured": 9599,
    "pid": 9600,
    "piece": 9601,
    "pieces": 9602,
    "pill": 9603,
    "pillar": 9604,
    "pine": 9605,
    "pins": 9606,
    "pipe": 9607,
    "piracy": 9608,
    "piration": 9609,
    "pire": 9610,
    "pired": 9611,
    "pires": 9612,
    "piring": 9613,
    "pit": 9614,
    "pite": 9615,
    "pkg": 9616,
    "placed": 9617,
    "places": 9618,
    "plain": 9619,
    "plane": 9620,
    "planes": 9621,
    "planned": 9622,
    "plant": 9623,
    "plate": 9624,
    "plates": 9625,
    "played": 9626,
    "plays": 9627,
    "pleasant": 9628,
    "pled": 9629,
    "plement": 9630,
    "plementation": 9631,
    "pler": 9632,
    "ples": 9633,
    "pless": 9634,
    "plet": 9635,
    "plete": 9636,
    "pleted": 9637,
    "pleting": 9638,
    "pletion": 9639,
    "plets": 9640,
    "plin": 9641,
    "pling": 9642,
    "plings": 9643,
    "pload": 9644,
    "plom": 9645,
    "ploma": 9646,
    "ploy": 9647,
    "plugins": 9648,
    "ply": 9649,
    "pmwiki": 9650,
    "png": 9651,
    "podcast": 9652,
    "pointer": 9653,
    "pointers": 9654,
    "poke": 9655,
    "pole": 9656,
    "poon": 9657,
    "poons": 9658,
    "popular": 9659,
    "pora": 9660,
    "poral": 9661,
    "porary": 9662,
    "porate": 9663,
    "portation": 9664,
    "ported": 9665,
    "porter": 9666,
    "porting": 9667,
    "portion": 9668,
    "ports": 9669,
    "posal": 9670,
    "posed": 9671,
    "poses": 9672,
    "posing": 9673,
    "positive": 9674,
    "posium": 9675,
    "possibly": 9676,
    "posure": 9677,
    "potion": 9678,
    "pots": 9679,
    "pound": 9680,
    "pour": 9681,
    "powder": 9682,
    "powered": 9683,
    "powerful": 9684,
    "powers": 9685,
    "pox": 9686,
    "ppa": 9687,
    "ppard": 9688,
    "ppe": 9689,
    "pped": 9690,
    "ppel": 9691,
    "ppelin": 9692,
    "pper": 9693,
    "pperc": 9694,
    "ppers": 9695,
    "pping": 9696,
    "ppings": 9697,
    "ppo": 9698,
    "pport": 9699,
    "pps": 9700,
    "ppy": 9701,
    "practice": 9702,
    "pread": 9703,
    "prefix": 9704,
    "pressed": 9705,
    "pressure": 9706,
    "pret": 9707,
    "priced": 9708,
    "pring": 9709,
    "printed": 9710,
    "printf": 9711,
    "println": 9712,
    "prints": 9713,
    "priority": 9714,
    "prise": 9715,
    "prises": 9716,
    "prising": 9717,
    "prisingly": 9718,
    "prison": 9719,
    "proc": 9720,
    "processing": 9721,
    "processor": 9722,
    "proclaimed": 9723,
    "produced": 9724,
    "producing": 9725,
    "productive": 9726,
    "profit": 9727,
    "profits": 9728,
    "projects": 9729,
    "pron": 9730,
    "prone": 9731,
    "properties": 9732,
    "protected": 9733,
    "protection": 9734,
    "protein": 9735,
    "prototype": 9736,
    "proven": 9737,
    "provided": 9738,
    "prus": 9739,
    "psc": 9740,
    "pse": 9741,
    "psey": 9742,
    "pson": 9743,
    "psons": 9744,
    "pta": 9745,
    "pter": 9746,
    "ptic": 9747,
    "ptin": 9748,
    "ption": 9749,
    "ptions": 9750,
    "ptive": 9751,
    "ptives": 9752,
    "ptoms": 9753,
    "pton": 9754,
    "ptroller": 9755,
    "pty": 9756,
    "puff": 9757,
    "pun": 9758,
    "punk": 9759,
    "purpose": 9760,
    "putable": 9761,
    "puted": 9762,
    "puter": 9763,
    "puters": 9764,
    "puting": 9765,
    "px": 9766,
    "qa": 9767,
    "qi": 9768,
    "qq": 9769,
    "qqa": 9770,
    "qs": 9771,
    "qt": 9772,
    "qua": 9773,
    "quad": 9774,
    "qualified": 9775,
    "quart": 9776,
    "quarter": 9777,
    "quartered": 9778,
    "quarters": 9779,
    "quel": 9780,
    "quer": 9781,
    "querade": 9782,
    "querque": 9783,
    "ques": 9784,
    "quet": 9785,
    "quez": 9786,
    "quickship": 9787,
    "quickshipavailable": 9788,
    "quiet": 9789,
    "quila": 9790,
    "quin": 9791,
    "quished": 9792,
    "quist": 9793,
    "quit": 9794,
    "qus": 9795,
    "qv": 9796,
    "rab": 9797,
    "rac": 9798,
    "racial": 9799,
    "racist": 9800,
    "rack": 9801,
    "ract": 9802,
    "racted": 9803,
    "ractical": 9804,
    "raction": 9805,
    "ractions": 9806,
    "ractive": 9807,
    "ractor": 9808,
    "racuse": 9809,
    "rade": 9810,
    "radical": 9811,
    "radius": 9812,
    "rador": 9813,
    "rael": 9814,
    "raf": 9815,
    "rafted": 9816,
    "rage": 9817,
    "raged": 9818,
    "ragon": 9819,
    "raham": 9820,
    "rahim": 9821,
    "raine": 9822,
    "rained": 9823,
    "raining": 9824,
    "raint": 9825,
    "raints": 9826,
    "raise": 9827,
    "raised": 9828,
    "raising": 9829,
    "rait": 9830,
    "raits": 9831,
    "rak": 9832,
    "rake": 9833,
    "rals": 9834,
    "raltar": 9835,
    "rama": 9836,
    "rame": 9837,
    "rament": 9838,
    "ramer": 9839,
    "ramid": 9840,
    "ramids": 9841,
    "rams": 9842,
    "ran": 9843,
    "rance": 9844,
    "ranch": 9845,
    "rane": 9846,
    "ranean": 9847,
    "rang": 9848,
    "ranged": 9849,
    "ranging": 9850,
    "ranking": 9851,
    "rano": 9852,
    "rans": 9853,
    "rants": 9854,
    "rape": 9855,
    "raped": 9856,
    "raper": 9857,
    "raph": 9858,
    "raphic": 9859,
    "raphics": 9860,
    "rapnel": 9861,
    "raq": 9862,
    "rar": 9863,
    "rared": 9864,
    "rarily": 9865,
    "rary": 9866,
    "ras": 9867,
    "rase": 9868,
    "rast": 9869,
    "rastructure": 9870,
    "ratch": 9871,
    "rates": 9872,
    "ration": 9873,
    "rational": 9874,
    "rations": 9875,
    "rative": 9876,
    "ratom": 9877,
    "rator": 9878,
    "rators": 9879,
    "rats": 9880,
    "ratulations": 9881,
    "raud": 9882,
    "raught": 9883,
    "rav": 9884,
    "rave": 9885,
    "raved": 9886,
    "ravel": 9887,
    "ravings": 9888,
    "raviolet": 9889,
    "ravis": 9890,
    "ravity": 9891,
    "rawdownload": 9892,
    "rawdownloadcloneembedreportprint": 9893,
    "rawl": 9894,
    "rawled": 9895,
    "rawler": 9896,
    "rawling": 9897,
    "rawn": 9898,
    "rax": 9899,
    "rays": 9900,
    "raz": 9901,
    "razen": 9902,
    "razil": 9903,
    "razy": 9904,
    "rea": 9905,
    "reach": 9906,
    "reaching": 9907,
    "react": 9908,
    "readable": 9909,
    "reads": 9910,
    "realdonaldtrump": 9911,
    "reality": 9912,
    "reasonable": 9913,
    "reat": 9914,
    "reated": 9915,
    "reath": 9916,
    "reating": 9917,
    "reatment": 9918,
    "reau": 9919,
    "recated": 9920,
    "received": 9921,
    "reci": 9922,
    "reciation": 9923,
    "reck": 9924,
    "recogn": 9925,
    "recorded": 9926,
    "rection": 9927,
    "recy": 9928,
    "reddits": 9929,
    "redible": 9930,
    "redibly": 9931,
    "redict": 9932,
    "redients": 9933,
    "redit": 9934,
    "reditary": 9935,
    "reditation": 9936,
    "redited": 9937,
    "redits": 9938,
    "redo": 9939,
    "reed": 9940,
    "reek": 9941,
    "reement": 9942,
    "reements": 9943,
    "reen": 9944,
    "reens": 9945,
    "reenshot": 9946,
    "reenshots": 9947,
    "rees": 9948,
    "reet": 9949,
    "reetings": 9950,
    "reflect": 9951,
    "regate": 9952,
    "regation": 9953,
    "regn": 9954,
    "regnancy": 9955,
    "regon": 9956,
    "regor": 9957,
    "regulated": 9958,
    "regulation": 9959,
    "rehend": 9960,
    "rehens": 9961,
    "rehensible": 9962,
    "rehensive": 9963,
    "rek": 9964,
    "relation": 9965,
    "relative": 9966,
    "relevant": 9967,
    "religious": 9968,
    "rell": 9969,
    "rella": 9970,
    "rely": 9971,
    "reme": 9972,
    "remlin": 9973,
    "rence": 9974,
    "rences": 9975,
    "rench": 9976,
    "renched": 9977,
    "renches": 9978,
    "rencies": 9979,
    "rency": 9980,
    "rend": 9981,
    "rendered": 9982,
    "rene": 9983,
    "renheit": 9984,
    "rent": 9985,
    "rentice": 9986,
    "rentices": 9987,
    "reon": 9988,
    "repair": 9989,
    "replace": 9990,
    "reported": 9991,
    "reportprint": 9992,
    "repre": 9993,
    "reprene": 9994,
    "represented": 9995,
    "req": 9996,
    "requency": 9997,
    "requent": 9998,
    "requently": 9999,
    "require": 10000,
    "requisite": 10001,
    "requisites": 10002,
    "rer": 10003,
    "rera": 10004,
    "rero": 10005,
    "rers": 10006,
    "resa": 10007,
    "rescent": 10008,
    "resent": 10009,
    "resents": 10010,
    "reset": 10011,
    "resh": 10012,
    "reshold": 10013,
    "resident": 10014,
    "resist": 10015,
    "resistant": 10016,
    "resolution": 10017,
    "respect": 10018,
    "respected": 10019,
    "respective": 10020,
    "respond": 10021,
    "respons": 10022,
    "responsible": 10023,
    "responsive": 10024,
    "ress": 10025,
    "ressed": 10026,
    "resses": 10027,
    "ressing": 10028,
    "ression": 10029,
    "ressive": 10030,
    "resso": 10031,
    "ressor": 10032,
    "restling": 10033,
    "restrial": 10034,
    "restricted": 10035,
    "resy": 10036,
    "retch": 10037,
    "retched": 10038,
    "rete": 10039,
    "reth": 10040,
    "retion": 10041,
    "rets": 10042,
    "rett": 10043,
    "rette": 10044,
    "retty": 10045,
    "reve": 10046,
    "reverse": 10047,
    "rey": 10048,
    "reys": 10049,
    "rez": 10050,
    "rha": 10051,
    "ria": 10052,
    "riad": 10053,
    "riage": 10054,
    "riages": 10055,
    "rial": 10056,
    "rian": 10057,
    "rians": 10058,
    "rib": 10059,
    "ribe": 10060,
    "ribed": 10061,
    "riber": 10062,
    "ribes": 10063,
    "ribing": 10064,
    "rible": 10065,
    "ribly": 10066,
    "ribune": 10067,
    "ribut": 10068,
    "ribute": 10069,
    "ributed": 10070,
    "ributes": 10071,
    "ribution": 10072,
    "rica": 10073,
    "rical": 10074,
    "rican": 10075,
    "ricane": 10076,
    "ricanes": 10077,
    "rice": 10078,
    "rices": 10079,
    "riched": 10080,
    "ricia": 10081,
    "ricks": 10082,
    "rics": 10083,
    "rict": 10084,
    "ricted": 10085,
    "ricting": 10086,
    "riction": 10087,
    "ricular": 10088,
    "rid": 10089,
    "ridden": 10090,
    "ride": 10091,
    "rider": 10092,
    "ridge": 10093,
    "ridges": 10094,
    "ridor": 10095,
    "rie": 10096,
    "ried": 10097,
    "rief": 10098,
    "rieg": 10099,
    "riel": 10100,
    "rien": 10101,
    "riend": 10102,
    "rient": 10103,
    "rients": 10104,
    "rier": 10105,
    "riers": 10106,
    "ries": 10107,
    "riet": 10108,
    "rieve": 10109,
    "rieved": 10110,
    "rieving": 10111,
    "rification": 10112,
    "rifice": 10113,
    "rified": 10114,
    "rift": 10115,
    "rig": 10116,
    "rigan": 10117,
    "riger": 10118,
    "righteous": 10119,
    "rights": 10120,
    "rik": 10121,
    "rika": 10122,
    "rike": 10123,
    "rikes": 10124,
    "riks": 10125,
    "ril": 10126,
    "rill": 10127,
    "rils": 10128,
    "rily": 10129,
    "rim": 10130,
    "riminal": 10131,
    "rimination": 10132,
    "rimp": 10133,
    "rin": 10134,
    "rina": 10135,
    "rine": 10136,
    "ringe": 10137,
    "rings": 10138,
    "rington": 10139,
    "rint": 10140,
    "rio": 10141,
    "rior": 10142,
    "riors": 10143,
    "riot": 10144,
    "riots": 10145,
    "riott": 10146,
    "rious": 10147,
    "ripp": 10148,
    "ription": 10149,
    "rique": 10150,
    "rir": 10151,
    "ris": 10152,
    "rise": 10153,
    "rises": 10154,
    "rish": 10155,
    "rising": 10156,
    "risis": 10157,
    "risk": 10158,
    "risome": 10159,
    "rison": 10160,
    "rist": 10161,
    "rists": 10162,
    "rit": 10163,
    "ritch": 10164,
    "rite": 10165,
    "riter": 10166,
    "rites": 10167,
    "ritic": 10168,
    "ritical": 10169,
    "rities": 10170,
    "rition": 10171,
    "ritional": 10172,
    "ritis": 10173,
    "rito": 10174,
    "ritten": 10175,
    "rity": 10176,
    "ritz": 10177,
    "rium": 10178,
    "rius": 10179,
    "riv": 10180,
    "rival": 10181,
    "rive": 10182,
    "rived": 10183,
    "rix": 10184,
    "riz": 10185,
    "roach": 10186,
    "roads": 10187,
    "robat": 10188,
    "robe": 10189,
    "roc": 10190,
    "rocal": 10191,
    "rodu": 10192,
    "roe": 10193,
    "rogen": 10194,
    "rogens": 10195,
    "rogram": 10196,
    "roid": 10197,
    "roit": 10198,
    "rol": 10199,
    "rolet": 10200,
    "roleum": 10201,
    "rolled": 10202,
    "roller": 10203,
    "rollers": 10204,
    "rolley": 10205,
    "rolling": 10206,
    "rollment": 10207,
    "rolog": 10208,
    "rology": 10209,
    "roma": 10210,
    "romancer": 10211,
    "rome": 10212,
    "romeda": 10213,
    "romising": 10214,
    "rompt": 10215,
    "romptu": 10216,
    "romy": 10217,
    "rone": 10218,
    "rones": 10219,
    "rongh": 10220,
    "ronic": 10221,
    "ronics": 10222,
    "rons": 10223,
    "ront": 10224,
    "rontal": 10225,
    "roo": 10226,
    "rooms": 10227,
    "roots": 10228,
    "rop": 10229,
    "roph": 10230,
    "rophe": 10231,
    "rophic": 10232,
    "ropolis": 10233,
    "ropolitan": 10234,
    "ropri": 10235,
    "ropy": 10236,
    "rored": 10237,
    "rors": 10238,
    "rosc": 10239,
    "rosis": 10240,
    "rosse": 10241,
    "rosso": 10242,
    "rossover": 10243,
    "rost": 10244,
    "rote": 10245,
    "rotein": 10246,
    "roth": 10247,
    "rots": 10248,
    "rou": 10249,
    "rouch": 10250,
    "roud": 10251,
    "rough": 10252,
    "rought": 10253,
    "rounded": 10254,
    "rounder": 10255,
    "roup": 10256,
    "roups": 10257,
    "rous": 10258,
    "rouse": 10259,
    "rov": 10260,
    "rovers": 10261,
    "roversial": 10262,
    "rowd": 10263,
    "rower": 10264,
    "rowing": 10265,
    "rown": 10266,
    "rows": 10267,
    "rowth": 10268,
    "rox": 10269,
    "roximately": 10270,
    "roxy": 10271,
    "roying": 10272,
    "rozen": 10273,
    "rpm": 10274,
    "rss": 10275,
    "ruary": 10276,
    "ruce": 10277,
    "ruciating": 10278,
    "ruck": 10279,
    "ruct": 10280,
    "ruction": 10281,
    "ructose": 10282,
    "ructure": 10283,
    "rue": 10284,
    "rued": 10285,
    "ruff": 10286,
    "rug": 10287,
    "rugged": 10288,
    "ruit": 10289,
    "ruits": 10290,
    "ruly": 10291,
    "rums": 10292,
    "runners": 10293,
    "runs": 10294,
    "rup": 10295,
    "rupal": 10296,
    "rupt": 10297,
    "rupted": 10298,
    "ruption": 10299,
    "rupulous": 10300,
    "rx": 10301,
    "ryce": 10302,
    "rying": 10303,
    "rylic": 10304,
    "ryn": 10305,
    "rypt": 10306,
    "rypted": 10307,
    "ryption": 10308,
    "rys": 10309,
    "ryu": 10310,
    "r\u00e3\u00a9": 10311,
    "saf": 10312,
    "sale": 10313,
    "sama": 10314,
    "saving": 10315,
    "saw": 10316,
    "sbm": 10317,
    "sburg": 10318,
    "sburgh": 10319,
    "scape": 10320,
    "scenes": 10321,
    "schild": 10322,
    "sci": 10323,
    "scientific": 10324,
    "scill": 10325,
    "scl": 10326,
    "scoring": 10327,
    "scrib": 10328,
    "scribe": 10329,
    "scribed": 10330,
    "scription": 10331,
    "scripts": 10332,
    "seat": 10333,
    "secondary": 10334,
    "seconds": 10335,
    "sect": 10336,
    "sectional": 10337,
    "sections": 10338,
    "sector": 10339,
    "secut": 10340,
    "secution": 10341,
    "sed": 10342,
    "seed": 10343,
    "seek": 10344,
    "seekers": 10345,
    "seeking": 10346,
    "seen": 10347,
    "sei": 10348,
    "sein": 10349,
    "selage": 10350,
    "selected": 10351,
    "selection": 10352,
    "seless": 10353,
    "sell": 10354,
    "seller": 10355,
    "selling": 10356,
    "sels": 10357,
    "selves": 10358,
    "semb": 10359,
    "semble": 10360,
    "sembly": 10361,
    "senal": 10362,
    "sensitive": 10363,
    "separ": 10364,
    "seq": 10365,
    "sequence": 10366,
    "sequent": 10367,
    "sequently": 10368,
    "serious": 10369,
    "sers": 10370,
    "served": 10371,
    "serving": 10372,
    "ses": 10373,
    "sets": 10374,
    "sett": 10375,
    "sever": 10376,
    "severe": 10377,
    "sey": 10378,
    "seys": 10379,
    "shake": 10380,
    "shall": 10381,
    "shaped": 10382,
    "shapeshifter": 10383,
    "shared": 10384,
    "sharing": 10385,
    "shaw": 10386,
    "shed": 10387,
    "sheet": 10388,
    "sheets": 10389,
    "shi": 10390,
    "shine": 10391,
    "ships": 10392,
    "shire": 10393,
    "shirt": 10394,
    "shirts": 10395,
    "shit": 10396,
    "shoot": 10397,
    "shore": 10398,
    "shots": 10399,
    "shown": 10400,
    "shows": 10401,
    "shr": 10402,
    "sic": 10403,
    "sid": 10404,
    "sided": 10405,
    "sie": 10406,
    "sight": 10407,
    "sighted": 10408,
    "signed": 10409,
    "significant": 10410,
    "sis": 10411,
    "sites": 10412,
    "sized": 10413,
    "ski": 10414,
    "skilled": 10415,
    "skinned": 10416,
    "skirts": 10417,
    "slaught": 10418,
    "slave": 10419,
    "sle": 10420,
    "slice": 10421,
    "smanship": 10422,
    "smoking": 10423,
    "sodeliverydate": 10424,
    "sotype": 10425,
    "soever": 10426,
    "sofar": 10427,
    "sole": 10428,
    "solete": 10429,
    "sonian": 10430,
    "sounding": 10431,
    "span": 10432,
    "speak": 10433,
    "species": 10434,
    "specified": 10435,
    "spection": 10436,
    "spective": 10437,
    "speech": 10438,
    "spin": 10439,
    "spir": 10440,
    "spoken": 10441,
    "sq": 10442,
    "src": 10443,
    "ssh": 10444,
    "sson": 10445,
    "sta": 10446,
    "stab": 10447,
    "stable": 10448,
    "stad": 10449,
    "stadt": 10450,
    "stained": 10451,
    "stairs": 10452,
    "stakes": 10453,
    "staking": 10454,
    "stal": 10455,
    "stall": 10456,
    "stals": 10457,
    "stanbul": 10458,
    "stant": 10459,
    "stantial": 10460,
    "started": 10461,
    "starter": 10462,
    "stasy": 10463,
    "stated": 10464,
    "stead": 10465,
    "steamapps": 10466,
    "sted": 10467,
    "steen": 10468,
    "stein": 10469,
    "stellar": 10470,
    "sten": 10471,
    "steps": 10472,
    "sterdam": 10473,
    "sters": 10474,
    "stery": 10475,
    "sth": 10476,
    "stic": 10477,
    "stice": 10478,
    "stick": 10479,
    "sticks": 10480,
    "stim": 10481,
    "stitial": 10482,
    "stocks": 10483,
    "stones": 10484,
    "stood": 10485,
    "stores": 10486,
    "stories": 10487,
    "storms": 10488,
    "stown": 10489,
    "stract": 10490,
    "straight": 10491,
    "strap": 10492,
    "strate": 10493,
    "stration": 10494,
    "stress": 10495,
    "stretched": 10496,
    "stri": 10497,
    "strings": 10498,
    "strip": 10499,
    "stro": 10500,
    "stroke": 10501,
    "strom": 10502,
    "stros": 10503,
    "strous": 10504,
    "stru": 10505,
    "structed": 10506,
    "struction": 10507,
    "strument": 10508,
    "sts": 10509,
    "stuff": 10510,
    "styles": 10511,
    "successful": 10512,
    "successfully": 10513,
    "sudo": 10514,
    "suff": 10515,
    "sufficient": 10516,
    "suit": 10517,
    "suits": 10518,
    "sung": 10519,
    "surface": 10520,
    "surprisingly": 10521,
    "susp": 10522,
    "sv": 10523,
    "swer": 10524,
    "swers": 10525,
[...]
